const unsigned char model_tflite[] = {
  0x1C, 0x00, 0x00, 0x00, 0x54, 0x46, 0x4C, 0x33, 0x14, 0x00,
  0x20, 0x00, 0x04, 0x00, 0x08, 0x00, 0x0C, 0x00, 0x10, 0x00,
  0x14, 0x00, 0x00, 0x00, 0x18, 0x00, 0x1C, 0x00, 0x14, 0x00,
  0x00, 0x00, 0x03, 0x00, 0x00, 0x00, 0x18, 0x00, 0x00, 0x00,
  0x30, 0x00, 0x00, 0x00, 0x5C, 0x01, 0x00, 0x00, 0x30, 0x00,
  0x00, 0x00, 0x04, 0x01, 0x00, 0x00, 0x7C, 0x00, 0x00, 0x00,
  0x06, 0x00, 0x00, 0x00, 0x34, 0x08, 0x00, 0x00, 0x2C, 0x07,
  0x00, 0x00, 0x3C, 0x05, 0x00, 0x00, 0x54, 0x04, 0x00, 0x00,
  0xB4, 0x02, 0x00, 0x00, 0x1C, 0x02, 0x00, 0x00, 0x01, 0x00,
  0x00, 0x00, 0x50, 0x01, 0x00, 0x00, 0x14, 0x00, 0x00, 0x00,
  0xE8, 0x9C, 0x01, 0x00, 0xE4, 0x9C, 0x01, 0x00, 0xF8, 0x9B,
  0x01, 0x00, 0x70, 0x9A, 0x01, 0x00, 0x1C, 0x99, 0x01, 0x00,
  0x2C, 0x8F, 0x01, 0x00, 0xD0, 0x8C, 0x01, 0x00, 0x5C, 0x0C,
  0x00, 0x00, 0xF8, 0x0A, 0x00, 0x00, 0x00, 0x09, 0x00, 0x00,
  0x84, 0x08, 0x00, 0x00, 0xBC, 0x9C, 0x01, 0x00, 0xB8, 0x9C,
  0x01, 0x00, 0xB4, 0x9C, 0x01, 0x00, 0xB0, 0x9C, 0x01, 0x00,
  0xAC, 0x9C, 0x01, 0x00, 0xA8, 0x9C, 0x01, 0x00, 0xA4, 0x9C,
  0x01, 0x00, 0xA0, 0x9C, 0x01, 0x00, 0xBC, 0x00, 0x00, 0x00,
  0x01, 0x00, 0x00, 0x00, 0x10, 0x00, 0x00, 0x00, 0x00, 0x00,
  0x0A, 0x00, 0x10, 0x00, 0x0C, 0x00, 0x08, 0x00, 0x04, 0x00,
  0x0A, 0x00, 0x00, 0x00, 0x0C, 0x00, 0x00, 0x00, 0x1C, 0x00,
  0x00, 0x00, 0x20, 0x00, 0x00, 0x00, 0x0F, 0x00, 0x00, 0x00,
  0x73, 0x65, 0x72, 0x76, 0x69, 0x6E, 0x67, 0x5F, 0x64, 0x65,
  0x66, 0x61, 0x75, 0x6C, 0x74, 0x00, 0x01, 0x00, 0x00, 0x00,
  0x14, 0x00, 0x00, 0x00, 0x01, 0x00, 0x00, 0x00, 0x24, 0x00,
  0x00, 0x00, 0x08, 0x00, 0x0C, 0x00, 0x08, 0x00, 0x04, 0x00,
  0x08, 0x00, 0x00, 0x00, 0x11, 0x00, 0x00, 0x00, 0x04, 0x00,
  0x00, 0x00, 0x07, 0x00, 0x00, 0x00, 0x64, 0x65, 0x6E, 0x73,
  0x65, 0x5F, 0x31, 0x00, 0xBE, 0x64, 0xFE, 0xFF, 0x04, 0x00,
  0x00, 0x00, 0x0C, 0x00, 0x00, 0x00, 0x63, 0x6F, 0x6E, 0x76,
  0x32, 0x64, 0x5F, 0x69, 0x6E, 0x70, 0x75, 0x74, 0x00, 0x00,
  0x00, 0x00, 0x01, 0x00, 0x00, 0x00, 0x0C, 0x00, 0x00, 0x00,
  0x08, 0x00, 0x0C, 0x00, 0x04, 0x00, 0x08, 0x00, 0x08, 0x00,
  0x00, 0x00, 0x08, 0x00, 0x00, 0x00, 0x13, 0x00, 0x00, 0x00,
  0x13, 0x00, 0x00, 0x00, 0x6D, 0x69, 0x6E, 0x5F, 0x72, 0x75,
  0x6E, 0x74, 0x69, 0x6D, 0x65, 0x5F, 0x76, 0x65, 0x72, 0x73,
  0x69, 0x6F, 0x6E, 0x00, 0x0E, 0x65, 0xFE, 0xFF, 0x04, 0x00,
  0x00, 0x00, 0x10, 0x00, 0x00, 0x00, 0x31, 0x2E, 0x31, 0x34,
  0x2E, 0x30, 0x00, 0x00, 0x00, 0x00, 0x00, 0x00, 0x00, 0x00,
  0x00, 0x00, 0x0F, 0x00, 0x00, 0x00, 0x4D, 0x4C, 0x49, 0x52,
  0x20, 0x43, 0x6F, 0x6E, 0x76, 0x65, 0x72, 0x74, 0x65, 0x64,
  0x2E, 0x00, 0x00, 0x00, 0x0E, 0x00, 0x18, 0x00, 0x04, 0x00,
  0x08, 0x00, 0x0C, 0x00, 0x10, 0x00, 0x14, 0x00, 0x0E, 0x00,
  0x00, 0x00, 0x14, 0x00, 0x00, 0x00, 0x5C, 0x00, 0x00, 0x00,
  0x60, 0x00, 0x00, 0x00, 0x64, 0x00, 0x00, 0x00, 0x84, 0x00,
  0x00, 0x00, 0x12, 0x00, 0x00, 0x00, 0x18, 0x9B, 0x01, 0x00,
  0xBC, 0x9A, 0x01, 0x00, 0x5C, 0x99, 0x01, 0x00, 0x08, 0x98,
  0x01, 0x00, 0xD8, 0x95, 0x01, 0x00, 0xFC, 0x8B, 0x01, 0x00,
  0x08, 0x8B, 0x01, 0x00, 0xA4, 0x0A, 0x00, 0x00, 0x2C, 0x09,
  0x00, 0x00, 0x48, 0x07, 0x00, 0x00, 0xA8, 0x06, 0x00, 0x00,
  0x8C, 0x05, 0x00, 0x00, 0x50, 0x04, 0x00, 0x00, 0x98, 0x03,
  0x00, 0x00, 0xB0, 0x02, 0x00, 0x00, 0xBC, 0x01, 0x00, 0x00,
  0x0C, 0x01, 0x00, 0x00, 0x74, 0x00, 0x00, 0x00, 0x01, 0x00,
  0x00, 0x00, 0x00, 0x00, 0x00, 0x00, 0x01, 0x00, 0x00, 0x00,
  0x11, 0x00, 0x00, 0x00, 0x08, 0x00, 0x00, 0x00, 0x28, 0x06,
  0x00, 0x00, 0xFC, 0x04, 0x00, 0x00, 0xDC, 0x03, 0x00, 0x00,
  0x30, 0x03, 0x00, 0x00, 0x2C, 0x02, 0x00, 0x00, 0x54, 0x01,
  0x00, 0x00, 0x98, 0x00, 0x00, 0x00, 0x10, 0x00, 0x00, 0x00,
  0x04, 0x00, 0x00, 0x00, 0x6D, 0x61, 0x69, 0x6E, 0x00, 0x00,
  0x00, 0x00, 0xFA, 0xFC, 0xFF, 0xFF, 0x05, 0x00, 0x00, 0x00,
  0x10, 0x00, 0x00, 0x00, 0x04, 0x00, 0x00, 0x00, 0x01, 0x00,
  0x00, 0x00, 0x11, 0x00, 0x00, 0x00, 0x01, 0x00, 0x00, 0x00,
  0x10, 0x00, 0x00, 0x00, 0x08, 0xFA, 0xFF, 0xFF, 0x06, 0x00,
  0x00, 0x00, 0x00, 0x00, 0x00, 0x06, 0x02, 0x00, 0x00, 0x00,
  0xB4, 0x65, 0xFE, 0xFF, 0x14, 0x00, 0x00, 0x00, 0x12, 0x00,
  0x00, 0x00, 0x18, 0x00, 0x00, 0x00, 0x40, 0x00, 0x00, 0x00,
  0x30, 0x00, 0x00, 0x00, 0x02, 0x00, 0x00, 0x00, 0x01, 0x00,
  0x00, 0x00, 0x06, 0x00, 0x00, 0x00, 0x19, 0x00, 0x00, 0x00,
  0x53, 0x74, 0x61, 0x74, 0x65, 0x66, 0x75, 0x6C, 0x50, 0x61,
  0x72, 0x74, 0x69, 0x74, 0x69, 0x6F, 0x6E, 0x65, 0x64, 0x43,
  0x61, 0x6C, 0x6C, 0x3A, 0x30, 0x00, 0x00, 0x00, 0x02, 0x00,
  0x00, 0x00, 0xFF, 0xFF, 0xFF, 0xFF, 0x06, 0x00, 0x00, 0x00,
  0x88, 0x65, 0xFE, 0xFF, 0xBE, 0xFB, 0xFF, 0xFF, 0x00, 0x00,
  0x00, 0x09, 0x04, 0x00, 0x00, 0x00, 0x1C, 0x00, 0x00, 0x00,
  0x10, 0x00, 0x00, 0x00, 0x04, 0x00, 0x00, 0x00, 0x8E, 0x66,
  0xFE, 0xFF, 0x00, 0x00, 0x80, 0x3F, 0x01, 0x00, 0x00, 0x00,
  0x10, 0x00, 0x00, 0x00, 0x01, 0x00, 0x00, 0x00, 0x0F, 0x00,
  0x00, 0x00, 0x9C, 0xFA, 0xFF, 0xFF, 0x19, 0x00, 0x00, 0x00,
  0x00, 0x00, 0x00, 0x19, 0x02, 0x00, 0x00, 0x00, 0x90, 0xFA,
  0xFF, 0xFF, 0x00, 0x00, 0x00, 0x09, 0x14, 0x00, 0x00, 0x00,
  0x11, 0x00, 0x00, 0x00, 0x18, 0x00, 0x00, 0x00, 0x40, 0x00,
  0x00, 0x00, 0x30, 0x00, 0x00, 0x00, 0x02, 0x00, 0x00, 0x00,
  0x01, 0x00, 0x00, 0x00, 0x06, 0x00, 0x00, 0x00, 0x1A, 0x00,
  0x00, 0x00, 0x53, 0x74, 0x61, 0x74, 0x65, 0x66, 0x75, 0x6C,
  0x50, 0x61, 0x72, 0x74, 0x69, 0x74, 0x69, 0x6F, 0x6E, 0x65,
  0x64, 0x43, 0x61, 0x6C, 0x6C, 0x3A, 0x30, 0x31, 0x00, 0x00,
  0x02, 0x00, 0x00, 0x00, 0xFF, 0xFF, 0xFF, 0xFF, 0x06, 0x00,
  0x00, 0x00, 0xF0, 0x67, 0xFE, 0xFF, 0x08, 0x00, 0x00, 0x00,
  0x0C, 0x00, 0x00, 0x00, 0x01, 0x00, 0x00, 0x00, 0x00, 0x00,
  0x80, 0x3B, 0x01, 0x00, 0x00, 0x00, 0x80, 0xFF, 0xFF, 0xFF,
  0xFF, 0xFF, 0xFF, 0xFF, 0x00, 0x00, 0x00, 0x00, 0x76, 0xFC,
  0xFF, 0xFF, 0x00, 0x00, 0x00, 0x08, 0x03, 0x00, 0x00, 0x00,
  0x18, 0x00, 0x00, 0x00, 0x0C, 0x00, 0x00, 0x00, 0x04, 0x00,
  0x00, 0x00, 0x5C, 0x66, 0xFE, 0xFF, 0x01, 0x00, 0x00, 0x00,
  0x0F, 0x00, 0x00, 0x00, 0x03, 0x00, 0x00, 0x00, 0x0E, 0x00,
  0x00, 0x00, 0x08, 0x00, 0x00, 0x00, 0x09, 0x00, 0x00, 0x00,
  0x3C, 0xFB, 0xFF, 0xFF, 0x00, 0x00, 0x00, 0x09, 0x14, 0x00,
  0x00, 0x00, 0x10, 0x00, 0x00, 0x00, 0x18, 0x00, 0x00, 0x00,
  0x5C, 0x00, 0x00, 0x00, 0x4C, 0x00, 0x00, 0x00, 0x02, 0x00,
  0x00, 0x00, 0x01, 0x00, 0x00, 0x00, 0x06, 0x00, 0x00, 0x00,
  0x34, 0x00, 0x00, 0x00, 0x73, 0x65, 0x71, 0x75, 0x65, 0x6E,
  0x74, 0x69, 0x61, 0x6C, 0x2F, 0x64, 0x65, 0x6E, 0x73, 0x65,
  0x5F, 0x31, 0x2F, 0x4D, 0x61, 0x74, 0x4D, 0x75, 0x6C, 0x3B,
  0x73, 0x65, 0x71, 0x75, 0x65, 0x6E, 0x74, 0x69, 0x61, 0x6C,
  0x2F, 0x64, 0x65, 0x6E, 0x73, 0x65, 0x5F, 0x31, 0x2F, 0x42,
  0x69, 0x61, 0x73, 0x41, 0x64, 0x64, 0x00, 0x00, 0x00, 0x00,
  0x02, 0x00, 0x00, 0x00, 0xFF, 0xFF, 0xFF, 0xFF, 0x06, 0x00,
  0x00, 0x00, 0xB8, 0x68, 0xFE, 0xFF, 0x08, 0x00, 0x00, 0x00,
  0x0C, 0x00, 0x00, 0x00, 0x01, 0x00, 0x00, 0x00, 0xBE, 0xE1,
  0x00, 0x40, 0x01, 0x00, 0x00, 0x00, 0x6A, 0x00, 0x00, 0x00,
  0x00, 0x00, 0x00, 0x00, 0x00, 0x00, 0x0E, 0x00, 0x1A, 0x00,
  0x08, 0x00, 0x0C, 0x00, 0x10, 0x00, 0x07, 0x00, 0x14, 0x00,
  0x0E, 0x00, 0x00, 0x00, 0x00, 0x00, 0x00, 0x08, 0x03, 0x00,
  0x00, 0x00, 0x24, 0x00, 0x00, 0x00, 0x18, 0x00, 0x00, 0x00,
  0x0C, 0x00, 0x00, 0x00, 0x00, 0x00, 0x06, 0x00, 0x08, 0x00,
  0x07, 0x00, 0x06, 0x00, 0x00, 0x00, 0x00, 0x00, 0x00, 0x01,
  0x01, 0x00, 0x00, 0x00, 0x0E, 0x00, 0x00, 0x00, 0x03, 0x00,
  0x00, 0x00, 0x0D, 0x00, 0x00, 0x00, 0x06, 0x00, 0x00, 0x00,
  0x07, 0x00, 0x00, 0x00, 0x38, 0xFC, 0xFF, 0xFF, 0x09, 0x00,
  0x00, 0x00, 0x00, 0x00, 0x00, 0x09, 0x04, 0x00, 0x00, 0x00,
  0x2C, 0xFC, 0xFF, 0xFF, 0x00, 0x00, 0x00, 0x09, 0x14, 0x00,
  0x00, 0x00, 0x0F, 0x00, 0x00, 0x00, 0x18, 0x00, 0x00, 0x00,
  0x6C, 0x00, 0x00, 0x00, 0x5C, 0x00, 0x00, 0x00, 0x02, 0x00,
  0x00, 0x00, 0x01, 0x00, 0x00, 0x00, 0x40, 0x00, 0x00, 0x00,
  0x46, 0x00, 0x00, 0x00, 0x73, 0x65, 0x71, 0x75, 0x65, 0x6E,
  0x74, 0x69, 0x61, 0x6C, 0x2F, 0x64, 0x65, 0x6E, 0x73, 0x65,
  0x2F, 0x4D, 0x61, 0x74, 0x4D, 0x75, 0x6C, 0x3B, 0x73, 0x65,
  0x71, 0x75, 0x65, 0x6E, 0x74, 0x69, 0x61, 0x6C, 0x2F, 0x64,
  0x65, 0x6E, 0x73, 0x65, 0x2F, 0x52, 0x65, 0x6C, 0x75, 0x3B,
  0x73, 0x65, 0x71, 0x75, 0x65, 0x6E, 0x74, 0x69, 0x61, 0x6C,
  0x2F, 0x64, 0x65, 0x6E, 0x73, 0x65, 0x2F, 0x42, 0x69, 0x61,
  0x73, 0x41, 0x64, 0x64, 0x00, 0x00, 0x02, 0x00, 0x00, 0x00,
  0xFF, 0xFF, 0xFF, 0xFF, 0x40, 0x00, 0x00, 0x00, 0xB8, 0x69,
  0xFE, 0xFF, 0x08, 0x00, 0x00, 0x00, 0x0C, 0x00, 0x00, 0x00,
  0x01, 0x00, 0x00, 0x00, 0x60, 0x8A, 0xE2, 0x3D, 0x01, 0x00,
  0x00, 0x00, 0x80, 0xFF, 0xFF, 0xFF, 0xFF, 0xFF, 0xFF, 0xFF,
  0x00, 0x00, 0x00, 0x00, 0x00, 0x00, 0x0A, 0x00, 0x10, 0x00,
  0x04, 0x00, 0x08, 0x00, 0x0C, 0x00, 0x0A, 0x00, 0x00, 0x00,
  0x02, 0x00, 0x00, 0x00, 0x10, 0x00, 0x00, 0x00, 0x04, 0x00,
  0x00, 0x00, 0x01, 0x00, 0x00, 0x00, 0x0D, 0x00, 0x00, 0x00,
  0x02, 0x00, 0x00, 0x00, 0x0C, 0x00, 0x00, 0x00, 0x01, 0x00,
  0x00, 0x00, 0x1C, 0xFD, 0xFF, 0xFF, 0x16, 0x00, 0x00, 0x00,
  0x00, 0x00, 0x00, 0x16, 0x01, 0x00, 0x00, 0x00, 0x10, 0xFD,
  0xFF, 0xFF, 0x00, 0x00, 0x00, 0x09, 0x14, 0x00, 0x00, 0x00,
  0x0E, 0x00, 0x00, 0x00, 0x18, 0x00, 0x00, 0x00, 0x40, 0x00,
  0x00, 0x00, 0x30, 0x00, 0x00, 0x00, 0x02, 0x00, 0x00, 0x00,
  0x01, 0x00, 0x00, 0x00, 0x00, 0x06, 0x00, 0x00, 0x1A, 0x00,
  0x00, 0x00, 0x73, 0x65, 0x71, 0x75, 0x65, 0x6E, 0x74, 0x69,
  0x61, 0x6C, 0x2F, 0x66, 0x6C, 0x61, 0x74, 0x74, 0x65, 0x6E,
  0x2F, 0x52, 0x65, 0x73, 0x68, 0x61, 0x70, 0x65, 0x00, 0x00,
  0x02, 0x00, 0x00, 0x00, 0xFF, 0xFF, 0xFF, 0xFF, 0x00, 0x06,
  0x00, 0x00, 0x70, 0x6A, 0xFE, 0xFF, 0x08, 0x00, 0x00, 0x00,
  0x0C, 0x00, 0x00, 0x00, 0x01, 0x00, 0x00, 0x00, 0xFF, 0xE1,
  0x6F, 0x3B, 0x01, 0x00, 0x00, 0x00, 0x80, 0xFF, 0xFF, 0xFF,
  0xFF, 0xFF, 0xFF, 0xFF, 0xF2, 0xFE, 0xFF, 0xFF, 0x00, 0x00,
  0x00, 0x01, 0x01, 0x00, 0x00, 0x00, 0x24, 0x00, 0x00, 0x00,
  0x18, 0x00, 0x00, 0x00, 0x04, 0x00, 0x00, 0x00, 0xE4, 0xFE,
  0xFF, 0xFF, 0x01, 0x00, 0x00, 0x00, 0x01, 0x00, 0x00, 0x00,
  0x00, 0x00, 0x01, 0x01, 0x01, 0x00, 0x00, 0x00, 0x0C, 0x00,
  0x00, 0x00, 0x03, 0x00, 0x00, 0x00, 0x0B, 0x00, 0x00, 0x00,
  0x04, 0x00, 0x00, 0x00, 0x05, 0x00, 0x00, 0x00, 0xC4, 0xFD,
  0xFF, 0xFF, 0x00, 0x00, 0x00, 0x09, 0x14, 0x00, 0x00, 0x00,
  0x0D, 0x00, 0x00, 0x00, 0x20, 0x00, 0x00, 0x00, 0x94, 0x00,
  0x00, 0x00, 0x7C, 0x00, 0x00, 0x00, 0x04, 0x00, 0x00, 0x00,
  0x01, 0x00, 0x00, 0x00, 0x30, 0x00, 0x00, 0x00, 0x01, 0x00,
  0x00, 0x00, 0x20, 0x00, 0x00, 0x00, 0x5D, 0x00, 0x00, 0x00,
  0x73, 0x65, 0x71, 0x75, 0x65, 0x6E, 0x74, 0x69, 0x61, 0x6C,
  0x2F, 0x63, 0x6F, 0x6E, 0x76, 0x32, 0x64, 0x5F, 0x31, 0x2F,
  0x52, 0x65, 0x6C, 0x75, 0x3B, 0x73, 0x65, 0x71, 0x75, 0x65,
  0x6E, 0x74, 0x69, 0x61, 0x6C, 0x2F, 0x63, 0x6F, 0x6E, 0x76,
  0x32, 0x64, 0x5F, 0x31, 0x2F, 0x42, 0x69, 0x61, 0x73, 0x41,
  0x64, 0x64, 0x3B, 0x73, 0x65, 0x71, 0x75, 0x65, 0x6E, 0x74,
  0x69, 0x61, 0x6C, 0x2F, 0x63, 0x6F, 0x6E, 0x76, 0x32, 0x64,
  0x5F, 0x31, 0x2F, 0x43, 0x6F, 0x6E, 0x76, 0x32, 0x44, 0x3B,
  0x63, 0x6F, 0x6E, 0x76, 0x32, 0x64, 0x5F, 0x31, 0x2F, 0x62,
  0x69, 0x61, 0x73, 0x00, 0x00, 0x00, 0x04, 0x00, 0x00, 0x00,
  0xFF, 0xFF, 0xFF, 0xFF, 0x30, 0x00, 0x00, 0x00, 0x01, 0x00,
  0x00, 0x00, 0x20, 0x00, 0x00, 0x00, 0x78, 0x6B, 0xFE, 0xFF,
  0x08, 0x00, 0x00, 0x00, 0x0C, 0x00, 0x00, 0x00, 0x01, 0x00,
  0x00, 0x00, 0xFF, 0xE1, 0x6F, 0x3B, 0x01, 0x00, 0x00, 0x00,
  0x80, 0xFF, 0xFF, 0xFF, 0xFF, 0xFF, 0xFF, 0xFF, 0x00, 0x00,
  0x00, 0x00, 0x00, 0x00, 0x0E, 0x00, 0x18, 0x00, 0x08, 0x00,
  0x0C, 0x00, 0x10, 0x00, 0x07, 0x00, 0x14, 0x00, 0x0E, 0x00,
  0x00, 0x00, 0x00, 0x00, 0x00, 0x01, 0x01, 0x00, 0x00, 0x00,
  0x30, 0x00, 0x00, 0x00, 0x24, 0x00, 0x00, 0x00, 0x10, 0x00,
  0x00, 0x00, 0x0C, 0x00, 0x10, 0x00, 0x0E, 0x00, 0x04, 0x00,
  0x08, 0x00, 0x0F, 0x00, 0x0C, 0x00, 0x00, 0x00, 0x01, 0x00,
  0x00, 0x00, 0x01, 0x00, 0x00, 0x00, 0x00, 0x00, 0x01, 0x01,
  0x01, 0x00, 0x00, 0x00, 0x0B, 0x00, 0x00, 0x00, 0x03, 0x00,
  0x00, 0x00, 0x0A, 0x00, 0x00, 0x00, 0x02, 0x00, 0x00, 0x00,
  0x03, 0x00, 0x00, 0x00, 0x08, 0xFF, 0xFF, 0xFF, 0x03, 0x00,
  0x00, 0x00, 0x00, 0x00, 0x00, 0x03, 0x03, 0x00, 0x00, 0x00,
  0xFC, 0xFE, 0xFF, 0xFF, 0x00, 0x00, 0x00, 0x09, 0x14, 0x00,
  0x00, 0x00, 0x0C, 0x00, 0x00, 0x00, 0x20, 0x00, 0x00, 0x00,
  0x8C, 0x00, 0x00, 0x00, 0x74, 0x00, 0x00, 0x00, 0x04, 0x00,
  0x00, 0x00, 0x01, 0x00, 0x00, 0x00, 0x31, 0x00, 0x00, 0x00,
  0x02, 0x00, 0x00, 0x00, 0x10, 0x00, 0x00, 0x00, 0x55, 0x00,
  0x00, 0x00, 0x73, 0x65, 0x71, 0x75, 0x65, 0x6E, 0x74, 0x69,
  0x61, 0x6C, 0x2F, 0x63, 0x6F, 0x6E, 0x76, 0x32, 0x64, 0x2F,
  0x52, 0x65, 0x6C, 0x75, 0x3B, 0x73, 0x65, 0x71, 0x75, 0x65,
  0x6E, 0x74, 0x69, 0x61, 0x6C, 0x2F, 0x63, 0x6F, 0x6E, 0x76,
  0x32, 0x64, 0x2F, 0x42, 0x69, 0x61, 0x73, 0x41, 0x64, 0x64,
  0x3B, 0x73, 0x65, 0x71, 0x75, 0x65, 0x6E, 0x74, 0x69, 0x61,
  0x6C, 0x2F, 0x63, 0x6F, 0x6E, 0x76, 0x32, 0x64, 0x2F, 0x43,
  0x6F, 0x6E, 0x76, 0x32, 0x44, 0x3B, 0x63, 0x6F, 0x6E, 0x76,
  0x32, 0x64, 0x2F, 0x62, 0x69, 0x61, 0x73, 0x00, 0x00, 0x00,
  0x04, 0x00, 0x00, 0x00, 0xFF, 0xFF, 0xFF, 0xFF, 0x31, 0x00,
  0x00, 0x00, 0x02, 0x00, 0x00, 0x00, 0x10, 0x00, 0x00, 0x00,
  0xA8, 0x6C, 0xFE, 0xFF, 0x08, 0x00, 0x00, 0x00, 0x0C, 0x00,
  0x00, 0x00, 0x01, 0x00, 0x00, 0x00, 0xDC, 0x4D, 0xF6, 0x3A,
  0x01, 0x00, 0x00, 0x00, 0x80, 0xFF, 0xFF, 0xFF, 0xFF, 0xFF,
  0xFF, 0xFF, 0x00, 0x00, 0x0A, 0x00, 0x0C, 0x00, 0x00, 0x00,
  0x04, 0x00, 0x08, 0x00, 0x0A, 0x00, 0x00, 0x00, 0x10, 0x00,
  0x00, 0x00, 0x04, 0x00, 0x00, 0x00, 0x01, 0x00, 0x00, 0x00,
  0x0A, 0x00, 0x00, 0x00, 0x01, 0x00, 0x00, 0x00, 0x00, 0x00,
  0x00, 0x00, 0x0C, 0x00, 0x10, 0x00, 0x0B, 0x00, 0x00, 0x00,
  0x0C, 0x00, 0x04, 0x00, 0x0C, 0x00, 0x00, 0x00, 0x72, 0x00,
  0x00, 0x00, 0x00, 0x00, 0x00, 0x72, 0x01, 0x00, 0x00, 0x00,
  0x14, 0x00, 0x1C, 0x00, 0x08, 0x00, 0x07, 0x00, 0x0C, 0x00,
  0x10, 0x00, 0x14, 0x00, 0x00, 0x00, 0x00, 0x00, 0x18, 0x00,
  0x14, 0x00, 0x00, 0x00, 0x00, 0x00, 0x00, 0x09, 0x14, 0x00,
  0x00, 0x00, 0x0B, 0x00, 0x00, 0x00, 0x20, 0x00, 0x00, 0x00,
  0x44, 0x00, 0x00, 0x00, 0x2C, 0x00, 0x00, 0x00, 0x04, 0x00,
  0x00, 0x00, 0x01, 0x00, 0x00, 0x00, 0x32, 0x00, 0x00, 0x00,
  0x03, 0x00, 0x00, 0x00, 0x01, 0x00, 0x00, 0x00, 0x0C, 0x00,
  0x00, 0x00, 0x74, 0x66, 0x6C, 0x2E, 0x71, 0x75, 0x61, 0x6E,
  0x74, 0x69, 0x7A, 0x65, 0x00, 0x00, 0x00, 0x00, 0x04, 0x00,
  0x00, 0x00, 0xFF, 0xFF, 0xFF, 0xFF, 0x32, 0x00, 0x00, 0x00,
  0x03, 0x00, 0x00, 0x00, 0x01, 0x00, 0x00, 0x00, 0x78, 0x6D,
  0xFE, 0xFF, 0x08, 0x00, 0x00, 0x00, 0x0C, 0x00, 0x00, 0x00,
  0x01, 0x00, 0x00, 0x00, 0x6A, 0x35, 0x57, 0x3B, 0x01, 0x00,
  0x00, 0x00, 0x80, 0xFF, 0xFF, 0xFF, 0xFF, 0xFF, 0xFF, 0xFF,
  0xB2, 0x6C, 0xFE, 0xFF, 0x04, 0x00, 0x00, 0x00, 0x18, 0x00,
  0x00, 0x00, 0xC4, 0xFE, 0xFF, 0xFF, 0x66, 0xFE, 0xFF, 0xFF,
  0xCA, 0x00, 0x00, 0x00, 0xCA, 0x02, 0x00, 0x00, 0xCE, 0xFF,
  0xFF, 0xFF, 0x64, 0xFF, 0xFF, 0xFF, 0xBA, 0x6C, 0xFE, 0xFF,
  0x00, 0x00, 0x00, 0x02, 0x10, 0x00, 0x00, 0x00, 0x0A, 0x00,
  0x00, 0x00, 0x10, 0x00, 0x00, 0x00, 0x20, 0x00, 0x00, 0x00,
  0x01, 0x00, 0x00, 0x00, 0x06, 0x00, 0x00, 0x00, 0x0C, 0x00,
  0x00, 0x00, 0x64, 0x65, 0x6E, 0x73, 0x65, 0x5F, 0x31, 0x2F,
  0x62, 0x69, 0x61, 0x73, 0x00, 0x00, 0x00, 0x00, 0xF0, 0x6D,
  0xFE, 0xFF, 0x08, 0x00, 0x00, 0x00, 0x0C, 0x00, 0x00, 0x00,
  0x01, 0x00, 0x00, 0x00, 0x6E, 0x3F, 0xC1, 0x3B, 0x01, 0x00,
  0x00, 0x00, 0x00, 0x00, 0x00, 0x00, 0x00, 0x00, 0x00, 0x00,
  0x2A, 0x6D, 0xFE, 0xFF, 0x04, 0x00, 0x00, 0x00, 0x80, 0x01,
  0x00, 0x00, 0x02, 0xF9, 0xFE, 0x02, 0xF9, 0xFC, 0xFF, 0xFD,
  0xFF, 0x02, 0xF9, 0x00, 0x00, 0x00, 0xFE, 0x00, 0x02, 0x01,
  0x01, 0x01, 0x00, 0xFD, 0xE8, 0x07, 0x0A, 0x00, 0x00, 0x01,
  0x02, 0xFE, 0xF8, 0xFB, 0xFD, 0x02, 0x00, 0x06, 0x06, 0xF8,
  0xFD, 0x01, 0xDA, 0x03, 0x00, 0xFE, 0xFB, 0xFE, 0xFD, 0x00,
  0xF7, 0x00, 0xFC, 0xFB, 0x03, 0xFB, 0x02, 0xE9, 0x00, 0x00,
  0xFA, 0xF9, 0xFE, 0xFE, 0x03, 0xE9, 0x00, 0x06, 0xFF, 0xFF,
  0x03, 0xFF, 0xB3, 0xFA, 0xFD, 0x01, 0xFE, 0x00, 0x00, 0x00,
  0x05, 0xFB, 0xF2, 0xDB, 0xE4, 0xDF, 0x00, 0x02, 0x01, 0x01,
  0xDF, 0xFF, 0x00, 0xFF, 0x05, 0xF0, 0x06, 0x00, 0x01, 0xC6,
  0xCE, 0x01, 0x00, 0x01, 0xFE, 0xFC, 0xD1, 0xFF, 0x00, 0xF3,
  0x05, 0x00, 0xFB, 0xFF, 0x05, 0xFF, 0xFF, 0xF4, 0x00, 0x01,
  0x02, 0xFF, 0x00, 0xF6, 0x01, 0x02, 0x01, 0x06, 0x02, 0xFE,
  0xB8, 0xD4, 0x81, 0x01, 0xCC, 0xCF, 0x04, 0xD1, 0xB2, 0xD2,
  0x06, 0x00, 0x00, 0x00, 0xDA, 0x01, 0x02, 0x01, 0xF4, 0xCE,
  0x00, 0xCE, 0xB3, 0xC8, 0x03, 0xC2, 0x00, 0xFA, 0xFB, 0x05,
  0xC9, 0xF9, 0xFA, 0xFF, 0x02, 0xF9, 0xB1, 0xC1, 0xC8, 0x02,
  0x05, 0xAE, 0x00, 0x01, 0x06, 0xFD, 0xF3, 0xC4, 0xCF, 0x03,
  0xFD, 0x04, 0xB9, 0xFD, 0xB6, 0xBF, 0xB6, 0x02, 0xCF, 0x06,
  0xFB, 0x00, 0xC0, 0x02, 0x93, 0xCE, 0x01, 0xCD, 0xDC, 0x01,
  0x03, 0x05, 0x92, 0x9D, 0x01, 0x00, 0x00, 0x00, 0xDE, 0xFB,
  0xFE, 0x02, 0x07, 0x06, 0x00, 0x06, 0xC0, 0xFC, 0xCE, 0x01,
  0x00, 0xC8, 0xB6, 0x03, 0xE1, 0x01, 0x00, 0xD2, 0xD3, 0xC0,
  0x93, 0xC3, 0x08, 0xFF, 0xD4, 0x99, 0x00, 0x01, 0xFE, 0x00,
  0x07, 0x9E, 0xFE, 0xE1, 0xFD, 0x03, 0x96, 0xFE, 0x93, 0xE5,
  0x9A, 0x04, 0xDD, 0xBA, 0xCA, 0xCA, 0xD4, 0xFB, 0xFE, 0xFC,
  0xF9, 0x01, 0xFF, 0xE2, 0xE9, 0xDD, 0x02, 0xFA, 0x06, 0x00,
  0x00, 0x00, 0xFC, 0x00, 0x01, 0x01, 0xDA, 0xFC, 0x00, 0xF6,
  0xF9, 0xF9, 0xF7, 0x00, 0x00, 0xE3, 0xF9, 0x04, 0xFF, 0xF7,
  0xF8, 0xE7, 0xFF, 0xFA, 0xFB, 0x04, 0xF5, 0x02, 0xFF, 0xFD,
  0x00, 0x01, 0xFF, 0xF7, 0xF7, 0x01, 0x00, 0x03, 0xF6, 0x03,
  0xFB, 0xF7, 0xFE, 0xFE, 0xFF, 0x02, 0xFB, 0x05, 0xF9, 0xFB,
  0xF8, 0xFC, 0xFD, 0xFC, 0x02, 0xF8, 0xFF, 0xFF, 0xFB, 0x02,
  0xFF, 0xFE, 0xF4, 0x00, 0x00, 0x00, 0xFB, 0xE1, 0xF7, 0xFD,
  0xFF, 0x01, 0x00, 0x01, 0xFE, 0xFA, 0xF8, 0x01, 0x00, 0xFD,
  0xFA, 0xFE, 0xFC, 0x03, 0x03, 0xFA, 0xC9, 0xF8, 0xFD, 0xFF,
  0x05, 0xF6, 0xFC, 0x00, 0x00, 0x03, 0xFA, 0x02, 0x04, 0xFF,
  0xFD, 0xF7, 0x02, 0x01, 0xFE, 0x01, 0xFD, 0xFD, 0xFE, 0xF7,
  0x01, 0xFA, 0x03, 0xFA, 0xFD, 0xFE, 0x9A, 0x6E, 0xFE, 0xFF,
  0x00, 0x00, 0x00, 0x09, 0x10, 0x00, 0x00, 0x00, 0x09, 0x00,
  0x00, 0x00, 0x14, 0x00, 0x00, 0x00, 0x30, 0x00, 0x00, 0x00,
  0x02, 0x00, 0x00, 0x00, 0x06, 0x00, 0x00, 0x00, 0x40, 0x00,
  0x00, 0x00, 0x19, 0x00, 0x00, 0x00, 0x73, 0x65, 0x71, 0x75,
  0x65, 0x6E, 0x74, 0x69, 0x61, 0x6C, 0x2F, 0x64, 0x65, 0x6E,
  0x73, 0x65, 0x5F, 0x31, 0x2F, 0x4D, 0x61, 0x74, 0x4D, 0x75,
  0x6C, 0x00, 0x00, 0x00, 0xE0, 0x6F, 0xFE, 0xFF, 0x08, 0x00,
  0x00, 0x00, 0x0C, 0x00, 0x00, 0x00, 0x01, 0x00, 0x00, 0x00,
  0xBA, 0x60, 0x5A, 0x3D, 0x01, 0x00, 0x00, 0x00, 0x00, 0x00,
  0x00, 0x00, 0x00, 0x00, 0x00, 0x00, 0x00, 0x00, 0x00, 0x00,
  0x1E, 0x6F, 0xFE, 0xFF, 0x04, 0x00, 0x00, 0x00, 0x00, 0x01,
  0x00, 0x00, 0x5C, 0xF0, 0xFF, 0xFF, 0x74, 0xB1, 0xFF, 0xFF,
  0x63, 0xEA, 0xFF, 0xFF, 0x35, 0xE9, 0xFF, 0xFF, 0x4E, 0xC2,
  0xFF, 0xFF, 0x52, 0x24, 0x00, 0x00, 0xB5, 0xF7, 0xFF, 0xFF,
  0x69, 0x11, 0x00, 0x00, 0x6C, 0xF2, 0xFF, 0xFF, 0x70, 0xF5,
  0xFF, 0xFF, 0x7A, 0xFB, 0xFF, 0xFF, 0xFA, 0xFD, 0xFF, 0xFF,
  0xB2, 0xFD, 0xFF, 0xFF, 0xE7, 0xFD, 0xFF, 0xFF, 0xC1, 0xAF,
  0xFF, 0xFF, 0xBB, 0xE7, 0xFF, 0xFF, 0xDD, 0x0A, 0x00, 0x00,
  0x65, 0xEA, 0xFF, 0xFF, 0xC0, 0xEE, 0xFF, 0xFF, 0xC3, 0xE5,
  0xFF, 0xFF, 0xF0, 0xFA, 0xFF, 0xFF, 0xCD, 0x0A, 0x00, 0x00,
  0x6A, 0xC0, 0xFF, 0xFF, 0xED, 0xA8, 0xFF, 0xFF, 0x9C, 0xCC,
  0xFF, 0xFF, 0x83, 0x23, 0x00, 0x00, 0xEE, 0xFD, 0xFF, 0xFF,
  0x96, 0xD8, 0xFF, 0xFF, 0xE2, 0xB9, 0xFF, 0xFF, 0x5B, 0x03,
  0x00, 0x00, 0x8C, 0xC5, 0xFF, 0xFF, 0xB3, 0x08, 0x00, 0x00,
  0xC6, 0x03, 0x00, 0x00, 0x5E, 0xD7, 0xFF, 0xFF, 0xBE, 0xDD,
  0xFF, 0xFF, 0x9E, 0xAD, 0xFF, 0xFF, 0x54, 0xF0, 0xFF, 0xFF,
  0xB1, 0xC6, 0xFF, 0xFF, 0x0A, 0x0C, 0x00, 0x00, 0x0E, 0xD7,
  0xFF, 0xFF, 0x04, 0xD4, 0xFF, 0xFF, 0x12, 0xF1, 0xFF, 0xFF,
  0x1E, 0xFE, 0xFF, 0xFF, 0x8A, 0xEA, 0xFF, 0xFF, 0x1B, 0x21,
  0x00, 0x00, 0x21, 0x0F, 0x00, 0x00, 0x6B, 0xFE, 0xFF, 0xFF,
  0x73, 0xED, 0xFF, 0xFF, 0xBD, 0xCB, 0xFF, 0xFF, 0x77, 0xFD,
  0xFF, 0xFF, 0x92, 0x0D, 0x00, 0x00, 0xCB, 0xFA, 0xFF, 0xFF,
  0x00, 0xE2, 0xFF, 0xFF, 0xA0, 0x0E, 0x00, 0x00, 0x47, 0xF2,
  0xFF, 0xFF, 0x8F, 0xD3, 0xFF, 0xFF, 0xEF, 0xEE, 0xFF, 0xFF,
  0x62, 0xF4, 0xFF, 0xFF, 0xB6, 0xBF, 0xFF, 0xFF, 0x55, 0xE6,
  0xFF, 0xFF, 0x16, 0xD9, 0xFF, 0xFF, 0xE1, 0xAE, 0xFF, 0xFF,
  0x49, 0xBB, 0xFF, 0xFF, 0x27, 0xF2, 0xFF, 0xFF, 0x0E, 0x70,
  0xFE, 0xFF, 0x00, 0x00, 0x00, 0x02, 0x10, 0x00, 0x00, 0x00,
  0x08, 0x00, 0x00, 0x00, 0x10, 0x00, 0x00, 0x00, 0x1C, 0x00,
  0x00, 0x00, 0x01, 0x00, 0x00, 0x00, 0x40, 0x00, 0x00, 0x00,
  0x0A, 0x00, 0x00, 0x00, 0x64, 0x65, 0x6E, 0x73, 0x65, 0x2F,
  0x62, 0x69, 0x61, 0x73, 0x00, 0x00, 0x40, 0x71, 0xFE, 0xFF,
  0x08, 0x00, 0x00, 0x00, 0x0C, 0x00, 0x00, 0x00, 0x01, 0x00,
  0x00, 0x00, 0x3B, 0x66, 0xA5, 0x38, 0x01, 0x00, 0x00, 0x00,
  0x00, 0x00, 0x00, 0x00, 0x00, 0x00, 0x00, 0x00, 0x00, 0x00,
  0x00, 0x00, 0x7E, 0x70, 0xFE, 0xFF, 0x04, 0x00, 0x00, 0x00,
  0x00, 0x80, 0x01, 0x00, 0x03, 0x28, 0x00, 0x0E, 0x00, 0xF9,
  0xFC, 0xF6, 0xFB, 0xFD, 0xFB, 0xE0, 0x07, 0x00, 0xE4, 0x27,
  0x28, 0xFE, 0xF6, 0x00, 0x06, 0x19, 0x24, 0xDB, 0xF8, 0x1B,
  0x00, 0xDB, 0xFD, 0x00, 0xFE, 0x01, 0x2C, 0x1E, 0x00, 0xFF,
  0x00, 0xFA, 0xFF, 0xF8, 0xFC, 0xF9, 0x2D, 0xFB, 0x02, 0x00,
  0x00, 0xF9, 0x00, 0x01, 0xFB, 0x00, 0xFB, 0xFB, 0xF7, 0xFF,
  0xF8, 0x00, 0x00, 0xC6, 0xFF, 0x00, 0xFF, 0x02, 0x00, 0xF4,
  0x00, 0xFC, 0x00, 0x01, 0xF6, 0xF3, 0xFD, 0x00, 0x1D, 0xF4,
  0x04, 0x00, 0x00, 0xFC, 0x00, 0xFD, 0xF5, 0x00, 0x07, 0xF9,
  0x01, 0xCA, 0xFD, 0x00, 0x00, 0xE4, 0xFD, 0x1D, 0xFE, 0xFD,
  0x05, 0x2B, 0x00, 0xFB, 0x00, 0x01, 0xF8, 0xF9, 0xFE, 0xF9,
  0xFA, 0xF6, 0x05, 0x00, 0x00, 0xFD, 0x21, 0xFF, 0xFF, 0x00,
  0xFB, 0x05, 0xFE, 0xDD, 0xF3, 0x00, 0xFE, 0xE4, 0xF5, 0xFE,
  0x01, 0x04, 0x05, 0x12, 0x00, 0x19, 0x00, 0xFA, 0xF8, 0x36,
  0xFB, 0x07, 0x30, 0xF9, 0x0C, 0x00, 0x00, 0x03, 0x00, 0x01,
  0xF7, 0x00, 0xFC, 0xFF, 0xFA, 0x01, 0xF8, 0xD4, 0xFE, 0x00,
  0xFC, 0xFF, 0x00, 0x04, 0x0A, 0x21, 0x00, 0x1E, 0x00, 0xFE,
  0xF6, 0x1D, 0x01, 0x03, 0x37, 0xF4, 0x03, 0x00, 0x00, 0xFA,
  0x00, 0xFE, 0xFB, 0x00, 0xFB, 0xFC, 0xF5, 0x00, 0xF5, 0x00,
  0x00, 0x00, 0x3A, 0x25, 0xFD, 0x00, 0x10, 0x26, 0x00, 0x1A,
  0x00, 0x07, 0xF3, 0xFD, 0xFB, 0x00, 0x22, 0xF5, 0x09, 0x00,
  0x00, 0xFB, 0x29, 0x00, 0xFB, 0x00, 0x28, 0xFE, 0x13, 0xCF,
  0xFC, 0x00, 0x00, 0x00, 0xFB, 0x00, 0xFC, 0x01, 0x0F, 0xF4,
  0x00, 0x2E, 0x00, 0xFF, 0xF4, 0xFA, 0xF9, 0xFA, 0x16, 0xF2,
  0x04, 0x00, 0xDB, 0xF6, 0x00, 0x00, 0x01, 0x00, 0xE8, 0xF6,
  0xF8, 0xE0, 0xF3, 0xDF, 0x00, 0xE1, 0xF0, 0x00, 0xFD, 0x00,
  0x08, 0xF8, 0x00, 0x01, 0x00, 0xFD, 0xFC, 0xFE, 0xFD, 0xF9,
  0xFA, 0xF3, 0xFF, 0x00, 0x00, 0x01, 0x00, 0xFD, 0xFC, 0x00,
  0x00, 0xFF, 0xFB, 0x01, 0x00, 0x21, 0x00, 0x00, 0x09, 0x01,
  0xFF, 0xFB, 0x02, 0x35, 0x00, 0xF9, 0x00, 0xF6, 0xF1, 0x1E,
  0xFA, 0xF7, 0x1E, 0xF4, 0x02, 0x00, 0x00, 0x02, 0x31, 0x01,
  0x02, 0x00, 0xF4, 0xFB, 0x01, 0xDC, 0xFC, 0x00, 0x00, 0x00,
  0x14, 0xFF, 0xFE, 0xFE, 0xFD, 0x2C, 0x00, 0xFF, 0x00, 0xFC,
  0xFE, 0xFD, 0xFE, 0xFE, 0x23, 0xF4, 0x07, 0x00, 0xDA, 0xFB,
  0x32, 0x00, 0xF6, 0x00, 0xF9, 0x1F, 0xF4, 0xC7, 0xFD, 0x00,
  0x00, 0xE0, 0x26, 0x00, 0x00, 0x01, 0x00, 0x2C, 0x00, 0x00,
  0x00, 0xF3, 0xF3, 0xFA, 0xFC, 0xFE, 0x36, 0xF5, 0x02, 0x00,
  0x00, 0xF8, 0x30, 0x00, 0xFE, 0x00, 0xF6, 0xF5, 0xF8, 0xFF,
  0xFA, 0x00, 0x00, 0x00, 0x27, 0x20, 0xFD, 0xFC, 0x1E, 0x34,
  0x00, 0x13, 0x00, 0x02, 0xF6, 0xFC, 0xFE, 0x02, 0x2C, 0xED,
  0xFE, 0x00, 0x00, 0x0E, 0x00, 0xFD, 0xFA, 0x00, 0x2D, 0xF9,
  0xFC, 0xD5, 0x00, 0x00, 0x00, 0xDC, 0x1E, 0x00, 0xFF, 0xFC,
  0x00, 0x36, 0x00, 0x11, 0x00, 0x00, 0xF4, 0xFC, 0x00, 0xF7,
  0x12, 0xE9, 0x06, 0x00, 0x00, 0xFE, 0x33, 0xFF, 0x01, 0x00,
  0xFE, 0x23, 0xFA, 0xD8, 0xF5, 0x00, 0x00, 0x00, 0xF6, 0x24,
  0xFB, 0x02, 0x08, 0xFA, 0x00, 0x0C, 0x00, 0x00, 0xFC, 0x1B,
  0x01, 0x00, 0xF8, 0xFB, 0x04, 0x00, 0x01, 0xF7, 0x00, 0xFE,
  0xFA, 0x00, 0xFB, 0x21, 0xFE, 0xDC, 0xF9, 0x00, 0x00, 0x00,
  0x23, 0x1D, 0xFE, 0xFE, 0x08, 0x48, 0x00, 0x1C, 0x00, 0xFC,
  0xFC, 0xFD, 0x05, 0x05, 0x11, 0xF7, 0x0C, 0x00, 0x00, 0xFF,
  0x00, 0xFE, 0xF9, 0x00, 0xF4, 0x3B, 0xFA, 0xDC, 0xF3, 0x00,
  0x00, 0xE5, 0x20, 0x1C, 0x00, 0x03, 0x02, 0xF8, 0x00, 0x0B,
  0x00, 0xFD, 0xDD, 0xFB, 0xF9, 0x02, 0xFA, 0xFA, 0x06, 0x00,
  0xE5, 0xFB, 0x00, 0xFD, 0xFA, 0x00, 0xF7, 0x29, 0xF9, 0xE2,
  0xF0, 0x00, 0x00, 0xD9, 0xF8, 0x00, 0xFE, 0xFC, 0x02, 0x2A,
  0x00, 0x13, 0x00, 0xE9, 0xFC, 0xF8, 0x01, 0xFD, 0x13, 0xFB,
  0x07, 0x00, 0xDD, 0xF5, 0x00, 0x00, 0xFC, 0x00, 0xF2, 0x1A,
  0x00, 0xD4, 0xF8, 0x00, 0x00, 0x00, 0xF7, 0x00, 0xFC, 0x02,
  0xFC, 0x00, 0x00, 0xFB, 0x00, 0x06, 0xFD, 0xFF, 0xFB, 0xFC,
  0xFA, 0xF8, 0xFE, 0x00, 0xE3, 0xF8, 0x00, 0xFD, 0xF9, 0x00,
  0xFF, 0xFB, 0xFD, 0x00, 0xFE, 0x00, 0x00, 0x00, 0xF5, 0x00,
  0x01, 0x00, 0x06, 0x40, 0x00, 0x04, 0x00, 0xFB, 0xFE, 0xF9,
  0xF8, 0xFE, 0x25, 0xF4, 0x05, 0x00, 0x00, 0xF9, 0x00, 0xFE,
  0x02, 0x00, 0x0A, 0x1F, 0x04, 0x00, 0xFA, 0x00, 0x00, 0x00,
  0x29, 0x00, 0xFE, 0xFF, 0x05, 0x24, 0x00, 0xFC, 0x00, 0xFD,
  0xF3, 0x34, 0xFA, 0x04, 0x04, 0xF6, 0x07, 0x00, 0x00, 0xFB,
  0x1E, 0xFD, 0x03, 0x00, 0x00, 0x25, 0xF9, 0xDD, 0xF5, 0x2C,
  0x00, 0x00, 0xFA, 0xFF, 0xFE, 0xFB, 0xFB, 0x2C, 0x00, 0x04,
  0x00, 0xFD, 0xFE, 0xFE, 0xFF, 0x02, 0x03, 0xFD, 0x07, 0x00,
  0xFF, 0x21, 0x00, 0x00, 0xFA, 0x00, 0x04, 0xFB, 0xF4, 0xFF,
  0xFF, 0x00, 0xFF, 0xDC, 0x33, 0x1A, 0xFF, 0x00, 0x04, 0x32,
  0x00, 0x06, 0x00, 0x02, 0xED, 0xF6, 0x03, 0x01, 0x31, 0xF1,
  0x06, 0x00, 0x00, 0xF7, 0x31, 0x01, 0xFF, 0x00, 0x00, 0xF9,
  0xFE, 0xBE, 0xFA, 0x00, 0x00, 0x00, 0x1E, 0x01, 0xFD, 0x00,
  0x0C, 0xFB, 0x00, 0xFC, 0x00, 0x1F, 0xC7, 0xF8, 0xFA, 0xF5,
  0xF9, 0xF2, 0x0B, 0x00, 0x00, 0x29, 0x00, 0xFE, 0xFB, 0x00,
  0xF7, 0x27, 0xFF, 0xD6, 0xF6, 0x00, 0x00, 0xD0, 0xF8, 0x00,
  0x02, 0xFD, 0x02, 0x28, 0x00, 0x09, 0x00, 0x04, 0xF6, 0x21,
  0xEB, 0xFA, 0xFA, 0xF5, 0x04, 0x00, 0x00, 0x00, 0x00, 0x00,
  0xFC, 0x00, 0xFF, 0x00, 0x04, 0xFF, 0xF5, 0x00, 0x00, 0xD4,
  0x12, 0x01, 0xFF, 0xFC, 0x0A, 0x41, 0x00, 0x11, 0x00, 0x02,
  0xF6, 0x24, 0xF6, 0xF7, 0x14, 0xF1, 0x01, 0x00, 0x00, 0xFF,
  0x2F, 0xFF, 0xF9, 0x00, 0xFD, 0xF8, 0xF8, 0xD2, 0xFC, 0x00,
  0x00, 0x00, 0x12, 0x00, 0x00, 0x01, 0x02, 0x1F, 0x00, 0x0F,
  0x00, 0x03, 0xF9, 0xFB, 0xFD, 0xFC, 0xFC, 0xF0, 0xFD, 0x00,
  0x00, 0x05, 0x31, 0xFE, 0xFD, 0x00, 0x04, 0xFB, 0xF9, 0xD1,
  0xF9, 0x00, 0x00, 0xE4, 0x21, 0x1D, 0xFE, 0xFC, 0x00, 0x2D,
  0x00, 0xFC, 0x00, 0xDB, 0xF4, 0xFC, 0xFE, 0xFF, 0x1B, 0xF3,
  0x07, 0x00, 0xFE, 0x1D, 0x00, 0xFF, 0xFF, 0x00, 0xF2, 0x1D,
  0xFD, 0xDE, 0xF9, 0x00, 0x00, 0xCD, 0xF4, 0x00, 0xFB, 0xFE,
  0x06, 0x05, 0x00, 0xFE, 0x00, 0x01, 0xF8, 0x03, 0x02, 0xFC,
  0x1D, 0xF7, 0x06, 0x00, 0x00, 0xFB, 0xDD, 0x00, 0x03, 0x00,
  0x00, 0xFE, 0xF8, 0x00, 0xF8, 0x00, 0x00, 0xE3, 0x23, 0x1F,
  0x01, 0xFD, 0x00, 0x2F, 0x00, 0xFB, 0x00, 0x02, 0xF3, 0x03,
  0xF7, 0xF6, 0x23, 0xF7, 0x06, 0x00, 0x00, 0x01, 0x00, 0x01,
  0x06, 0x00, 0xFF, 0x00, 0xFE, 0x01, 0x06, 0x00, 0x00, 0xDB,
  0x24, 0x00, 0x01, 0xFB, 0x01, 0x2F, 0x00, 0xFE, 0x00, 0xF9,
  0xF8, 0x23, 0xF9, 0xFC, 0x02, 0xF4, 0x03, 0x00, 0x00, 0x02,
  0x2F, 0x00, 0xFA, 0x00, 0xFE, 0xF9, 0x03, 0xD2, 0xFB, 0x00,
  0x00, 0xE2, 0xFF, 0x00, 0xFD, 0xFB, 0x00, 0x3A, 0x00, 0x02,
  0x00, 0xFA, 0xFD, 0xF5, 0xFB, 0xFA, 0x02, 0xF5, 0x04, 0x00,
  0x00, 0xFC, 0x34, 0x01, 0xFA, 0x00, 0x02, 0x17, 0xF3, 0x00,
  0x05, 0x1F, 0xFF, 0x00, 0x18, 0x00, 0xFD, 0xFE, 0x26, 0x25,
  0x00, 0x01, 0x00, 0x03, 0xF5, 0xF8, 0xFD, 0xFA, 0xFB, 0xF4,
  0x09, 0x00, 0x00, 0xFE, 0x1B, 0xFF, 0x0F, 0x00, 0x07, 0xF8,
  0x04, 0xD2, 0x05, 0x00, 0x00, 0x00, 0x23, 0x00, 0xFC, 0xFC,
  0x09, 0x39, 0x00, 0xFA, 0x00, 0xFF, 0xED, 0xFA, 0xF8, 0xF6,
  0x12, 0xEB, 0x03, 0x00, 0x00, 0xFF, 0x00, 0x00, 0xFF, 0x00,
  0x04, 0x1E, 0xE5, 0xDB, 0xFF, 0x00, 0x00, 0xE4, 0xF7, 0x00,
  0xFF, 0xFE, 0x05, 0x29, 0x00, 0xF6, 0x00, 0x05, 0xF4, 0x24,
  0xF5, 0xFC, 0x01, 0xEE, 0x06, 0x00, 0x00, 0x22, 0x26, 0xFE,
  0xFF, 0x00, 0x26, 0xFC, 0x18, 0x00, 0xF6, 0x1B, 0x00, 0x00,
  0xFC, 0x00, 0xFC, 0xFC, 0x01, 0x35, 0x00, 0xF9, 0x00, 0x07,
  0xF2, 0x10, 0xFA, 0xFC, 0x03, 0xF8, 0x04, 0x00, 0x00, 0x02,
  0x2E, 0xFE, 0xFC, 0x00, 0xFE, 0x1B, 0xFB, 0xFF, 0x17, 0x21,
  0x00, 0x00, 0x05, 0x1B, 0xFC, 0xFF, 0x05, 0x2E, 0x00, 0xFA,
  0x00, 0x07, 0xF3, 0xF7, 0xFB, 0xD7, 0xF2, 0xF0, 0x04, 0x00,
  0xD5, 0xFC, 0x59, 0xFE, 0xF4, 0x00, 0xFE, 0x1D, 0xFA, 0xDA,
  0xFB, 0x00, 0x00, 0xDC, 0xF6, 0x00, 0xFE, 0xFB, 0x26, 0x24,
  0x00, 0x15, 0x00, 0xF3, 0xEF, 0xFF, 0xF7, 0xFF, 0xF6, 0xF4,
  0x05, 0x00, 0x00, 0x00, 0x00, 0xFE, 0x00, 0x00, 0xD2, 0xF9,
  0xF5, 0xE2, 0xEF, 0x00, 0x00, 0x00, 0x0B, 0x24, 0xFB, 0xFE,
  0x01, 0xFF, 0x00, 0x00, 0x00, 0xFC, 0xE8, 0xFE, 0xFD, 0xF5,
  0xFC, 0xEE, 0x02, 0x00, 0x00, 0x02, 0x00, 0x02, 0xFF, 0x00,
  0x22, 0xFC, 0xF9, 0xFF, 0xFD, 0x00, 0x01, 0xE6, 0x18, 0x1D,
  0x01, 0x01, 0xFC, 0x04, 0x00, 0x0E, 0x00, 0xFE, 0xEF, 0xF7,
  0xF8, 0xF4, 0x03, 0xF0, 0xFE, 0x00, 0x00, 0x20, 0x33, 0xFD,
  0x01, 0x00, 0xFC, 0x21, 0xFD, 0xD3, 0xF4, 0x39, 0x00, 0x00,
  0x2B, 0xFF, 0x01, 0xFD, 0x2A, 0x03, 0x00, 0x12, 0x00, 0xF8,
  0xF7, 0x2F, 0xF6, 0xFC, 0x20, 0xF7, 0x06, 0x00, 0xD7, 0xF6,
  0x32, 0xFF, 0xF5, 0x00, 0xFD, 0xFA, 0xFD, 0xE8, 0xF5, 0x00,
  0x00, 0xDA, 0x03, 0x00, 0x00, 0xFE, 0x04, 0x2D, 0x00, 0xFD,
  0x00, 0xF6, 0xF2, 0xF3, 0xFE, 0x03, 0x32, 0xF5, 0x08, 0x00,
  0x00, 0x1E, 0x41, 0x00, 0xF9, 0x00, 0x24, 0x15, 0xF4, 0xFF,
  0xFF, 0x1C, 0x00, 0xD0, 0x2F, 0x00, 0xF9, 0xFE, 0x34, 0x50,
  0x00, 0x17, 0x00, 0x02, 0xF4, 0xFC, 0xF6, 0x03, 0x21, 0xF4,
  0x01, 0x00, 0x00, 0x1F, 0x28, 0xFD, 0x1D, 0x00, 0x07, 0xFC,
  0x07, 0xE0, 0x00, 0x00, 0x00, 0x00, 0x1F, 0xFF, 0xFC, 0xFC,
  0x04, 0x31, 0x00, 0xFB, 0x00, 0x23, 0xF7, 0x01, 0xF8, 0xFE,
  0xF9, 0xF8, 0x09, 0x00, 0xE4, 0xFC, 0x29, 0xFE, 0x08, 0x00,
  0xFC, 0x24, 0xFC, 0xFE, 0xF5, 0x00, 0x00, 0x00, 0xF7, 0x01,
  0xFB, 0xFF, 0x26, 0x19, 0x00, 0xF9, 0x00, 0x0D, 0xF2, 0x29,
  0xFF, 0x04, 0x25, 0xF4, 0xFF, 0x00, 0x01, 0xF2, 0x26, 0x00,
  0xF8, 0x00, 0x27, 0xFD, 0xFC, 0xFF, 0xFC, 0x00, 0x00, 0xE3,
  0xFA, 0x1B, 0xFF, 0xFF, 0x04, 0x54, 0x00, 0x05, 0x00, 0xFF,
  0xFD, 0x20, 0x05, 0x01, 0x32, 0xF6, 0x04, 0x00, 0x00, 0xFD,
  0x21, 0x00, 0xFC, 0x00, 0xF2, 0x02, 0xFD, 0xD3, 0xEE, 0x00,
  0x00, 0x00, 0x1D, 0x01, 0x01, 0x03, 0x05, 0x01, 0x00, 0xFB,
  0x00, 0x08, 0xF9, 0xF8, 0x00, 0x02, 0xF8, 0xF7, 0x06, 0x00,
  0xD4, 0xF3, 0x3B, 0x01, 0xF7, 0x00, 0x04, 0xF5, 0xD7, 0xC9,
  0xF8, 0x00, 0x00, 0xDE, 0x12, 0x00, 0x00, 0x06, 0x0B, 0x3F,
  0x00, 0x1F, 0x00, 0xF4, 0xF2, 0xFD, 0x02, 0x08, 0x13, 0xF8,
  0x0C, 0x00, 0xE3, 0xF8, 0x00, 0x00, 0x03, 0x00, 0x17, 0xFC,
  0xFA, 0x00, 0xF0, 0x1D, 0x00, 0x00, 0xED, 0x24, 0xFD, 0x01,
  0xF7, 0x0C, 0x00, 0xFD, 0x00, 0x04, 0xFA, 0xFE, 0xE0, 0xF9,
  0x08, 0xFD, 0xF5, 0xDD, 0x00, 0x09, 0x1E, 0xC6, 0x28, 0x00,
  0x2E, 0x00, 0x0A, 0x1E, 0x29, 0x00, 0xDF, 0x00, 0x07, 0x26,
  0xE0, 0x01, 0xF9, 0x03, 0x00, 0xFB, 0x00, 0x09, 0xFA, 0xFF,
  0xFD, 0xCE, 0x04, 0xFB, 0xFA, 0xD5, 0x00, 0x03, 0x00, 0x00,
  0xFF, 0x00, 0x06, 0xFF, 0x09, 0x00, 0x30, 0x00, 0x00, 0x00,
  0x07, 0x00, 0xDF, 0xFE, 0xFB, 0x04, 0x00, 0x04, 0x00, 0x0A,
  0x00, 0x03, 0xFE, 0xFE, 0x06, 0x01, 0x02, 0x00, 0x00, 0x02,
  0x00, 0xFF, 0x02, 0x00, 0x05, 0x04, 0x05, 0x20, 0x01, 0x00,
  0x00, 0x00, 0x03, 0x00, 0x02, 0x00, 0x02, 0x08, 0x00, 0x08,
  0x00, 0xEA, 0xFD, 0x00, 0xFD, 0xFB, 0x03, 0xDA, 0xFB, 0xDD,
  0x00, 0x08, 0x27, 0x00, 0x02, 0x00, 0x08, 0x00, 0x0A, 0x01,
  0x2A, 0x00, 0x00, 0x00, 0xFF, 0x01, 0x02, 0x01, 0xFC, 0x06,
  0x00, 0xF9, 0xE5, 0x05, 0x00, 0x00, 0xF9, 0xFA, 0x09, 0xFF,
  0x02, 0x00, 0x00, 0xFD, 0x00, 0x00, 0x07, 0x00, 0x00, 0x00,
  0x04, 0x01, 0x26, 0x00, 0x00, 0x00, 0x08, 0x00, 0xFF, 0xFF,
  0xFB, 0x0E, 0x00, 0x01, 0x00, 0x06, 0xE4, 0x02, 0xFE, 0xFA,
  0x05, 0xCD, 0xFE, 0xD5, 0x00, 0x25, 0x1B, 0xE5, 0xFE, 0x00,
  0x0E, 0x00, 0x06, 0x00, 0x08, 0x00, 0x00, 0x00, 0x05, 0x01,
  0xDD, 0xFE, 0xFA, 0x06, 0x00, 0x00, 0x00, 0x06, 0x03, 0xFD,
  0x05, 0xFE, 0x04, 0xE7, 0x08, 0x00, 0x00, 0x23, 0x00, 0x01,
  0xFC, 0x00, 0x07, 0xFE, 0x08, 0x00, 0x26, 0x00, 0xE3, 0x00,
  0xFD, 0x00, 0xDC, 0x00, 0x03, 0x08, 0x00, 0x06, 0x00, 0x0A,
  0x02, 0xFB, 0xFD, 0xFC, 0x07, 0x08, 0x0A, 0x00, 0x00, 0x20,
  0x00, 0x01, 0xFB, 0x00, 0x05, 0xFC, 0x0A, 0x00, 0x1C, 0x00,
  0x00, 0x00, 0x00, 0x00, 0x00, 0x04, 0xFC, 0x02, 0x00, 0x05,
  0x00, 0x09, 0xE4, 0x01, 0x01, 0xFD, 0x09, 0x09, 0xE1, 0x00,
  0x00, 0x02, 0x00, 0xE1, 0x06, 0x00, 0x09, 0x02, 0x06, 0x02,
  0x2F, 0x00, 0x00, 0x00, 0x00, 0x1B, 0x03, 0x04, 0x02, 0x06,
  0x00, 0xFE, 0x00, 0x07, 0x01, 0x28, 0xFE, 0xF7, 0x06, 0x01,
  0x03, 0xE5, 0x00, 0x27, 0x00, 0xE0, 0x05, 0x00, 0x01, 0x02,
  0x05, 0x1F, 0x1B, 0x00, 0xDE, 0x00, 0x04, 0xFF, 0x01, 0x02,
  0x00, 0x0A, 0x00, 0xFD, 0xE2, 0x09, 0xFF, 0x02, 0xFE, 0xDA,
  0x07, 0xFD, 0x00, 0x00, 0x00, 0x08, 0x00, 0xC8, 0x08, 0x00,
  0x32, 0x05, 0x0B, 0x1F, 0x2A, 0x00, 0x00, 0x00, 0x0A, 0x01,
  0x00, 0x03, 0xFB, 0x03, 0x00, 0xFC, 0x00, 0x06, 0xFD, 0x06,
  0xF7, 0xFF, 0x30, 0xFE, 0xFF, 0x00, 0x00, 0x01, 0x00, 0xBF,
  0x09, 0x20, 0x05, 0x03, 0x21, 0x1F, 0x25, 0x00, 0x00, 0x00,
  0x05, 0x00, 0xDC, 0x01, 0xFD, 0x09, 0x00, 0x06, 0xE5, 0x0B,
  0x16, 0x06, 0xFC, 0xFD, 0x06, 0x01, 0x01, 0x00, 0x00, 0x00,
  0x00, 0xE5, 0x04, 0x00, 0x0D, 0x04, 0x08, 0x00, 0x2F, 0x00,
  0x00, 0x00, 0x22, 0x00, 0x02, 0xFB, 0x05, 0x08, 0x00, 0x23,
  0x01, 0x05, 0xFF, 0x00, 0xF9, 0xCD, 0x04, 0xE7, 0x01, 0xD2,
  0x00, 0x06, 0x28, 0xD6, 0x05, 0x00, 0xFE, 0xFF, 0x2F, 0x01,
  0x04, 0x00, 0x00, 0x00, 0xFE, 0x01, 0x01, 0x01, 0xFB, 0x09,
  0x00, 0xF9, 0x00, 0x0A, 0x00, 0x00, 0xFE, 0xFD, 0x05, 0xD5,
  0x06, 0x00, 0x00, 0x3F, 0x00, 0xD6, 0x0A, 0x00, 0x02, 0x02,
  0x01, 0x01, 0xFF, 0x00, 0xE6, 0x00, 0x02, 0x1F, 0xE6, 0x03,
  0x01, 0x05, 0x00, 0xFC, 0x1E, 0x05, 0xDD, 0x00, 0xD6, 0xF6,
  0x03, 0x02, 0x01, 0x00, 0x00, 0x03, 0x1B, 0xDD, 0x18, 0x00,
  0x0C, 0xFE, 0x05, 0x00, 0x33, 0x00, 0x00, 0x00, 0x05, 0x00,
  0xDB, 0x04, 0xFF, 0x04, 0x00, 0xFC, 0x00, 0x06, 0xFF, 0xFD,
  0xFA, 0xFC, 0x01, 0xDF, 0x02, 0x00, 0x00, 0x2D, 0x25, 0x00,
  0x02, 0x00, 0x2A, 0xFF, 0x07, 0x00, 0x1F, 0x00, 0x00, 0x00,
  0x08, 0x00, 0xDF, 0x01, 0x01, 0x0B, 0x00, 0xFE, 0xE4, 0x08,
  0x01, 0xFB, 0x00, 0xBF, 0x0D, 0x00, 0x09, 0x00, 0x00, 0x24,
  0x27, 0xBE, 0x04, 0x21, 0x04, 0xFF, 0xFE, 0x1E, 0x2C, 0x00,
  0x00, 0x00, 0x07, 0xFF, 0x01, 0x01, 0x01, 0xFD, 0x00, 0x07,
  0xE5, 0x0B, 0xE6, 0xFF, 0xFF, 0xFF, 0x06, 0x0C, 0x08, 0x00,
  0x00, 0x04, 0x00, 0xC3, 0xFC, 0x00, 0x07, 0x04, 0x09, 0x00,
  0x3B, 0x00, 0xE2, 0x00, 0x03, 0x00, 0xE3, 0x03, 0xFE, 0x0D,
  0x00, 0xFC, 0xE6, 0x08, 0xE2, 0x03, 0xF6, 0xCE, 0x09, 0xD4,
  0x01, 0x00, 0x00, 0x35, 0x00, 0xA5, 0x0A, 0x00, 0x01, 0x05,
  0x07, 0x2C, 0x18, 0x00, 0x00, 0x00, 0xFD, 0x01, 0x00, 0xFC,
  0xFA, 0x0E, 0x00, 0xFB, 0x00, 0x0A, 0xFD, 0x04, 0xD0, 0xFA,
  0x08, 0xDA, 0xF6, 0x00, 0x00, 0x30, 0x00, 0xC2, 0x26, 0x00,
  0x2F, 0x02, 0x0C, 0x01, 0x0C, 0x00, 0xCD, 0x00, 0x07, 0x00,
  0xFF, 0xFA, 0xFF, 0x0E, 0x00, 0x04, 0xE1, 0x27, 0x19, 0x06,
  0xFC, 0xFA, 0x07, 0xFB, 0xF9, 0xD0, 0x00, 0x05, 0x00, 0xE6,
  0x06, 0x1B, 0x06, 0xFF, 0x07, 0x00, 0x30, 0x00, 0x00, 0x00,
  0x03, 0x00, 0xCD, 0xFF, 0xF9, 0x0A, 0x00, 0x04, 0x00, 0x09,
  0x00, 0x02, 0xD8, 0xFD, 0x02, 0xE9, 0x02, 0xD7, 0x00, 0x08,
  0x00, 0x00, 0x00, 0x2B, 0x08, 0x03, 0x13, 0x00, 0x2A, 0x00,
  0x00, 0x00, 0x08, 0x1E, 0x02, 0xFC, 0x03, 0x07, 0x00, 0x04,
  0x00, 0x0A, 0x05, 0x01, 0xF5, 0xC2, 0x09, 0xF0, 0xEB, 0xCB,
  0x00, 0x09, 0x00, 0x01, 0x06, 0x00, 0x07, 0xFF, 0x08, 0x00,
  0x27, 0xE6, 0x00, 0x00, 0x05, 0x00, 0x03, 0x05, 0xFC, 0x0D,
  0x00, 0xFA, 0x00, 0x0E, 0xFE, 0xFD, 0xDC, 0xC2, 0x08, 0xFF,
  0x03, 0x00, 0x00, 0x30, 0x00, 0x00, 0x09, 0x00, 0x11, 0x01,
  0x06, 0x00, 0x2C, 0x00, 0x00, 0x00, 0x08, 0xFF, 0xFE, 0xFC,
  0xF8, 0x06, 0x00, 0xE2, 0x00, 0x07, 0xD9, 0x1A, 0xF5, 0xF6,
  0x07, 0xDB, 0x00, 0xDC, 0x00, 0x2B, 0x22, 0x00, 0x00, 0x00,
  0x10, 0xFF, 0x09, 0x00, 0x08, 0x00, 0x00, 0x00, 0x0A, 0x00,
  0xE2, 0xFC, 0xFF, 0x06, 0x00, 0xFB, 0xDA, 0x06, 0xE6, 0x01,
  0xF9, 0xFC, 0x05, 0xD6, 0x01, 0x00, 0x01, 0x27, 0x00, 0x02,
  0x01, 0x00, 0x07, 0x00, 0x04, 0x00, 0x23, 0x00, 0x01, 0x00,
  0xFD, 0x01, 0xE1, 0xFF, 0xFD, 0x0F, 0x00, 0xFB, 0xDA, 0x0D,
  0xFE, 0x00, 0xF6, 0xF7, 0x0C, 0xCD, 0xFE, 0x00, 0x00, 0x2E,
  0x00, 0xDF, 0x20, 0x1A, 0x3B, 0x04, 0x05, 0x1E, 0x44, 0x00,
  0x00, 0x00, 0x0C, 0x00, 0xDB, 0xFC, 0xF6, 0x05, 0x00, 0x01,
  0x00, 0x04, 0x01, 0x01, 0x00, 0x01, 0x0A, 0xDF, 0x01, 0xD3,
  0x00, 0x07, 0x00, 0x01, 0x01, 0x00, 0x01, 0x01, 0x22, 0x20,
  0x33, 0x00, 0x00, 0x00, 0x02, 0x03, 0xEA, 0xFE, 0xFD, 0xFE,
  0x00, 0x05, 0x00, 0x03, 0xFF, 0x01, 0xF9, 0xF9, 0x05, 0xE1,
  0xFB, 0xD2, 0x00, 0x00, 0x00, 0xE1, 0x06, 0x00, 0x09, 0x00,
  0x06, 0x01, 0x04, 0x00, 0x00, 0x00, 0x08, 0x00, 0x02, 0x01,
  0xFB, 0x38, 0x00, 0x05, 0x00, 0x00, 0xFD, 0x00, 0xFF, 0xFF,
  0x08, 0xFC, 0x01, 0xDC, 0x00, 0x0C, 0x00, 0xE3, 0x24, 0x00,
  0x07, 0x02, 0x09, 0x21, 0x02, 0x00, 0x00, 0x1A, 0x03, 0x00,
  0xFF, 0xFE, 0xFF, 0x09, 0x00, 0xFB, 0x00, 0x0C, 0xFC, 0x00,
  0xFC, 0x02, 0x0A, 0xFD, 0xFF, 0x00, 0x00, 0x03, 0x00, 0xDD,
  0x03, 0x22, 0x0E, 0x02, 0x03, 0x1D, 0x2A, 0x00, 0x00, 0x00,
  0x0C, 0x1A, 0xE3, 0xFD, 0x01, 0x04, 0x00, 0x07, 0x00, 0x09,
  0x01, 0x01, 0x00, 0x00, 0x0A, 0xDF, 0x06, 0xCE, 0x00, 0x28,
  0x00, 0x00, 0x26, 0x1D, 0x2F, 0x00, 0x0C, 0x1B, 0x2C, 0x00,
  0x00, 0x00, 0x03, 0x00, 0x01, 0xFE, 0xFD, 0x08, 0x00, 0x02,
  0x00, 0x08, 0xE6, 0x03, 0xFC, 0xD4, 0x09, 0x02, 0xFE, 0x00,
  0x00, 0x00, 0x00, 0xE0, 0x01, 0x00, 0x28, 0x00, 0x04, 0x00,
  0x29, 0x00, 0x00, 0x1A, 0x08, 0x00, 0xD7, 0xFA, 0xFA, 0x0E,
  0x00, 0x03, 0x00, 0x08, 0x00, 0x03, 0xD6, 0xFD, 0x08, 0xEA,
  0xFC, 0x00, 0x00, 0x2E, 0x00, 0xD5, 0x0B, 0x00, 0x05, 0x00,
  0x09, 0x01, 0x23, 0x00, 0xE6, 0x00, 0x02, 0x00, 0x00, 0x01,
  0xFD, 0x0A, 0x00, 0x01, 0x00, 0x0D, 0xFE, 0x06, 0xDF, 0xD9,
  0x05, 0xDD, 0x00, 0xE2, 0x00, 0x05, 0x1A, 0xC8, 0x04, 0x00,
  0x0D, 0x04, 0x09, 0x1B, 0x2C, 0x00, 0xD8, 0x00, 0x04, 0x00,
  0x01, 0x00, 0xFC, 0x08, 0x00, 0xFF, 0xD7, 0x0A, 0x01, 0x03,
  0xDE, 0xFB, 0x01, 0xE8, 0x03, 0x00, 0x00, 0x05, 0x00, 0xD7,
  0x03, 0x1F, 0x2B, 0x03, 0x0D, 0x00, 0x23, 0x21, 0x00, 0x00,
  0x02, 0x00, 0xDA, 0x04, 0xE3, 0x09, 0x00, 0xFB, 0xDF, 0x07,
  0xFB, 0x18, 0x01, 0xF9, 0x0E, 0xE4, 0x06, 0xD4, 0x00, 0x22,
  0x00, 0x00, 0x09, 0x00, 0x07, 0x01, 0x01, 0x00, 0x22, 0x00,
  0xE3, 0x00, 0x03, 0x00, 0xDA, 0x05, 0xFE, 0x0D, 0x00, 0x05,
  0x00, 0x07, 0x06, 0x06, 0x04, 0x00, 0x0A, 0x0B, 0x01, 0xD6,
  0x01, 0x02, 0x00, 0xE7, 0x05, 0x00, 0x08, 0x07, 0x0B, 0x00,
  0x30, 0x00, 0x01, 0x00, 0x04, 0x01, 0xDC, 0x01, 0xFF, 0x02,
  0x00, 0x01, 0x00, 0x0C, 0x04, 0xFD, 0xFF, 0x00, 0x04, 0xEE,
  0x09, 0xD6, 0x00, 0x19, 0x00, 0xBD, 0x00, 0x00, 0x08, 0xFF,
  0x05, 0x2B, 0x23, 0x00, 0x00, 0x00, 0xFF, 0x01, 0xFD, 0x07,
  0x03, 0x06, 0x00, 0x02, 0x00, 0x0A, 0x02, 0xFD, 0x00, 0xFE,
  0x0A, 0xE8, 0x02, 0x00, 0x00, 0x27, 0x00, 0xC7, 0x03, 0x00,
  0x39, 0xFC, 0x25, 0x00, 0x06, 0x00, 0x00, 0x00, 0x01, 0x00,
  0xE2, 0x06, 0x01, 0x01, 0x00, 0x06, 0x00, 0x04, 0x1F, 0x04,
  0xE1, 0x00, 0x33, 0x03, 0x00, 0x00, 0x00, 0xFC, 0x00, 0xDF,
  0x05, 0x00, 0x06, 0x06, 0x02, 0x1D, 0x23, 0x00, 0x00, 0x00,
  0x02, 0x00, 0xD0, 0x02, 0x02, 0x03, 0x00, 0x00, 0x00, 0x03,
  0x20, 0x04, 0xEC, 0x02, 0x0A, 0xDE, 0x05, 0x00, 0x00, 0x02,
  0x1A, 0x00, 0x2C, 0x00, 0x2E, 0x09, 0x08, 0x1E, 0x3A, 0x00,
  0x00, 0x00, 0x00, 0x01, 0x03, 0x01, 0x00, 0x0F, 0x00, 0xFF,
  0x00, 0x07, 0xFA, 0x08, 0xFC, 0xFE, 0x06, 0xE1, 0x01, 0xD9,
  0x00, 0x03, 0x00, 0x00, 0x0B, 0x00, 0x00, 0x03, 0x05, 0x28,
  0x23, 0x00, 0x00, 0x00, 0x01, 0x03, 0x00, 0x00, 0xFF, 0x0C,
  0x00, 0xFE, 0x00, 0x08, 0x01, 0x04, 0x01, 0xFD, 0x06, 0x00,
  0x06, 0xC2, 0x00, 0x37, 0x00, 0x00, 0x0D, 0x00, 0x09, 0x08,
  0x06, 0x1B, 0x38, 0x00, 0x00, 0x1C, 0x05, 0x01, 0x00, 0x02,
  0xFC, 0x0A, 0x00, 0xFC, 0x00, 0x09, 0xFC, 0x04, 0xF6, 0xF7,
  0x03, 0x01, 0x06, 0xC9, 0x00, 0x04, 0x00, 0xFF, 0x06, 0x00,
  0x06, 0x04, 0x0C, 0x00, 0xFF, 0x00, 0x00, 0x00, 0x00, 0x01,
  0xCF, 0xFE, 0xFB, 0x0D, 0x00, 0x05, 0x00, 0x0B, 0xFF, 0x04,
  0xFA, 0xFE, 0x03, 0xDF, 0xE7, 0xC9, 0x00, 0x06, 0x00, 0x02,
  0x02, 0x00, 0x0D, 0x02, 0x04, 0x00, 0x07, 0x00, 0x00, 0x00,
  0x03, 0x00, 0xDA, 0xFB, 0xFD, 0x0A, 0x00, 0xFA, 0x00, 0x0D,
  0x00, 0x03, 0x00, 0xFE, 0x06, 0xD2, 0xFA, 0xCF, 0x00, 0x04,
  0x1D, 0xE2, 0x0A, 0x00, 0x0A, 0x09, 0x05, 0x21, 0x28, 0x00,
  0x00, 0x00, 0x05, 0x00, 0x01, 0xFD, 0xFC, 0x38, 0x00, 0x19,
  0x00, 0xFD, 0xF8, 0x4D, 0x14, 0x3E, 0x0B, 0xFA, 0xEF, 0x00,
  0x00, 0x04, 0x24, 0xC3, 0x3F, 0x1A, 0x46, 0x3F, 0xFD, 0x01,
  0xFE, 0x00, 0x00, 0x26, 0x00, 0x01, 0x1D, 0x02, 0xFF, 0x13,
  0x00, 0x14, 0xFF, 0x24, 0xDC, 0x05, 0x11, 0x0B, 0x29, 0xFA,
  0xF8, 0x00, 0x00, 0x02, 0x32, 0x00, 0x03, 0x00, 0x10, 0x04,
  0xFF, 0x00, 0x0F, 0x32, 0x00, 0x00, 0x08, 0x00, 0x02, 0xF6,
  0x03, 0xFA, 0x00, 0x0F, 0x00, 0x05, 0xD2, 0x21, 0x09, 0x0B,
  0x06, 0xFD, 0xF9, 0x00, 0x00, 0x24, 0x21, 0x00, 0xF9, 0x1A,
  0x07, 0x00, 0xF7, 0x01, 0x10, 0x22, 0x00, 0x00, 0x04, 0x00,
  0x02, 0xFC, 0xDF, 0x18, 0x00, 0x08, 0x00, 0x0B, 0xC6, 0xFE,
  0x0D, 0x04, 0x08, 0xFC, 0xF7, 0x00, 0x00, 0x00, 0x3A, 0x00,
  0xFC, 0x00, 0x02, 0x02, 0x0E, 0xFF, 0x08, 0x00, 0x00, 0x00,
  0x06, 0x01, 0x02, 0xFE, 0xFB, 0xFE, 0x00, 0x3D, 0x00, 0x04,
  0xD8, 0xFE, 0x0E, 0x0C, 0x09, 0x00, 0xF7, 0x00, 0x00, 0x3F,
  0x1A, 0x00, 0x01, 0x25, 0x09, 0x06, 0x07, 0x00, 0x2C, 0x00,
  0x00, 0x2D, 0x12, 0x00, 0x00, 0xFE, 0x05, 0x24, 0x00, 0x0A,
  0x00, 0xF7, 0xD3, 0x0D, 0x13, 0x09, 0x0A, 0xF9, 0xF8, 0x00,
  0x00, 0x2B, 0x2B, 0x00, 0x0A, 0x00, 0x28, 0x02, 0x0B, 0x00,
  0x00, 0x1D, 0x00, 0x00, 0x03, 0x00, 0x03, 0x01, 0xFB, 0xF5,
  0x00, 0x04, 0x00, 0x09, 0x01, 0x07, 0x44, 0x0B, 0x02, 0xDF,
  0xF9, 0x00, 0x00, 0x18, 0x3C, 0x00, 0x07, 0x00, 0x0B, 0x09,
  0xE6, 0x01, 0x07, 0x00, 0x00, 0x00, 0x04, 0x00, 0xC5, 0x02,
  0x01, 0x26, 0x00, 0x03, 0x00, 0xF9, 0xFD, 0x0C, 0x06, 0x47,
  0x3B, 0xFB, 0xFB, 0x00, 0x1D, 0xFD, 0x2A, 0x00, 0x0A, 0x00,
  0x06, 0x05, 0xDF, 0x01, 0x04, 0x27, 0x00, 0x00, 0x0F, 0xE0,
  0xD7, 0xF9, 0xFE, 0x06, 0x00, 0x09, 0x00, 0xE3, 0xFD, 0x09,
  0x0A, 0x0A, 0xFE, 0xFC, 0xF6, 0x00, 0x24, 0x30, 0x1D, 0x02,
  0x00, 0x00, 0x2E, 0x04, 0x06, 0x00, 0x06, 0x00, 0x00, 0x22,
  0x08, 0x00, 0xD1, 0xFA, 0xC7, 0xFD, 0x00, 0x0D, 0x00, 0xEC,
  0xFC, 0xFF, 0x07, 0x02, 0x27, 0xFD, 0xCF, 0x00, 0x00, 0x2D,
  0x00, 0x00, 0x24, 0x00, 0xF5, 0x08, 0x00, 0xFE, 0x0A, 0x00,
  0x00, 0x00, 0x06, 0x01, 0x03, 0xFD, 0xFA, 0x00, 0x00, 0x0C,
  0x00, 0xE7, 0xFC, 0x08, 0x07, 0x06, 0x02, 0xF4, 0xF8, 0x00,
  0x00, 0x00, 0x1A, 0x1B, 0x2F, 0x00, 0x07, 0xDD, 0x20, 0xFF,
  0x0E, 0x00, 0x00, 0x00, 0x06, 0x01, 0x00, 0xFE, 0xFA, 0xFC,
  0x00, 0x0B, 0x1A, 0xE3, 0xE2, 0x07, 0x08, 0xE9, 0x03, 0xFB,
  0xF5, 0x00, 0x23, 0xFD, 0x00, 0x00, 0xFD, 0xDB, 0x11, 0xD9,
  0x00, 0x01, 0x0C, 0x00, 0x00, 0x00, 0x0D, 0x00, 0x01, 0xFF,
  0xFC, 0xF9, 0x00, 0xFE, 0x00, 0xC2, 0xFE, 0xE9, 0x03, 0x01,
  0x00, 0xF8, 0xEE, 0x00, 0x1E, 0x2C, 0x00, 0x21, 0xFE, 0x00,
  0x07, 0xDE, 0xFE, 0x00, 0x05, 0xCF, 0x00, 0x00, 0x2A, 0x01,
  0x00, 0xFF, 0xF2, 0xFB, 0x00, 0xFE, 0x1D, 0xE2, 0xD4, 0xEB,
  0x08, 0x0B, 0x0B, 0xFE, 0xFA, 0x00, 0x20, 0xFE, 0x28, 0x1A,
  0x05, 0x00, 0x26, 0x06, 0x00, 0x01, 0x07, 0x00, 0x00, 0x00,
  0x09, 0x00, 0x01, 0x03, 0xF6, 0xFF, 0x00, 0x08, 0x00, 0xEA,
  0xEA, 0xE1, 0x07, 0x03, 0xFF, 0xFE, 0xF6, 0x00, 0x00, 0x2C,
  0x00, 0x00, 0x25, 0x00, 0x40, 0x0A, 0xFF, 0x00, 0x10, 0x00,
  0x23, 0x00, 0x08, 0xFF, 0xD8, 0xFF, 0x1F, 0x05, 0x00, 0x06,
  0x00, 0xFD, 0xFC, 0xD8, 0x0A, 0x34, 0x01, 0x00, 0xD5, 0xE1,
  0x00, 0x00, 0x00, 0x00, 0x2B, 0x00, 0x2A, 0x06, 0x09, 0x01,
  0x05, 0x1D, 0x00, 0x00, 0x08, 0x01, 0x04, 0x06, 0xFA, 0x00,
  0x00, 0x05, 0x00, 0x08, 0xFE, 0x09, 0x0D, 0x01, 0x05, 0xE0,
  0xFA, 0xD6, 0x00, 0x02, 0x00, 0x01, 0x05, 0x00, 0x46, 0x07,
  0x08, 0x00, 0x04, 0x00, 0x1C, 0xDC, 0x06, 0x00, 0x02, 0x06,
  0x22, 0xFA, 0x00, 0x06, 0x00, 0xFD, 0x03, 0x0A, 0x06, 0x38,
  0x2C, 0xFF, 0x01, 0x00, 0x00, 0x03, 0x24, 0x00, 0x09, 0x00,
  0x3B, 0x0E, 0x0B, 0x00, 0x01, 0x00, 0x00, 0x00, 0x06, 0x25,
  0x1B, 0x07, 0x03, 0x02, 0x00, 0x00, 0x00, 0xFF, 0x00, 0x06,
  0x0C, 0x09, 0x00, 0x01, 0xFF, 0x00, 0x00, 0x01, 0x37, 0x00,
  0x09, 0x00, 0x29, 0x05, 0x02, 0x00, 0x01, 0x1A, 0x00, 0x00,
  0x02, 0x1E, 0xFB, 0x01, 0xF8, 0x03, 0x00, 0x05, 0x00, 0x00,
  0xF9, 0x0A, 0x10, 0x02, 0x06, 0xFA, 0xF8, 0x00, 0x00, 0x06,
  0x2F, 0x00, 0x03, 0x1E, 0x3A, 0x04, 0x03, 0x00, 0x0C, 0x00,
  0x00, 0x00, 0x0A, 0x1E, 0x1C, 0xF7, 0xF5, 0xFA, 0x00, 0xF3,
  0x00, 0x00, 0xD8, 0x2A, 0x0F, 0x0B, 0x08, 0xFC, 0xF6, 0x00,
  0x00, 0x25, 0x00, 0xE6, 0xFF, 0x00, 0x27, 0x07, 0xFF, 0xFF,
  0x0D, 0x00, 0x2F, 0x00, 0x32, 0x20, 0x01, 0x01, 0xF4, 0xFF,
  0x00, 0x07, 0x00, 0x00, 0xDD, 0x04, 0x0B, 0x04, 0xFE, 0xFA,
  0xF8, 0x00, 0x00, 0xF9, 0x1A, 0x01, 0x02, 0x00, 0x0C, 0x03,
  0x01, 0x00, 0x05, 0x20, 0x26, 0x00, 0x03, 0x00, 0x00, 0xFE,
  0xF3, 0xF4, 0x00, 0x08, 0x00, 0x01, 0x05, 0x0A, 0x0D, 0x0F,
  0x06, 0x00, 0xF6, 0x00, 0x00, 0xFC, 0x27, 0x00, 0xFF, 0x00,
  0x31, 0x29, 0xF6, 0x00, 0x00, 0x2D, 0x1F, 0x00, 0x0B, 0x00,
  0x29, 0xFF, 0xFB, 0x15, 0x00, 0x0E, 0x00, 0x02, 0xD2, 0x2A,
  0x0A, 0x09, 0x06, 0x21, 0xDB, 0x00, 0xDD, 0xFF, 0x31, 0xE3,
  0x02, 0x00, 0x02, 0xFA, 0x04, 0x01, 0x08, 0x00, 0x00, 0x00,
  0x05, 0x00, 0x02, 0x01, 0xD7, 0x1C, 0x00, 0x11, 0x00, 0x09,
  0xE0, 0x01, 0x12, 0x13, 0x0A, 0x03, 0xD4, 0x00, 0xCF, 0xF8,
  0x2A, 0xE2, 0x24, 0x00, 0x09, 0x01, 0x0A, 0x00, 0x0C, 0x2A,
  0x00, 0x00, 0x02, 0x00, 0xE2, 0x03, 0xFB, 0x2B, 0x00, 0x0C,
  0x00, 0xFE, 0xBD, 0x0A, 0x12, 0x0B, 0x29, 0x05, 0x00, 0x00,
  0x00, 0x09, 0x49, 0xDF, 0x07, 0x00, 0x06, 0x04, 0xF1, 0x00,
  0x02, 0x34, 0x00, 0x00, 0x02, 0x00, 0xE5, 0xEC, 0x03, 0x00,
  0x00, 0x07, 0x00, 0x05, 0xE5, 0x09, 0x3A, 0x37, 0x04, 0xFD,
  0xFF, 0x00, 0xDA, 0xFC, 0x3F, 0xDD, 0x09, 0x1E, 0x07, 0x07,
  0xFE, 0x01, 0x00, 0x00, 0x00, 0x00, 0x07, 0x00, 0x05, 0x04,
  0xFE, 0x01, 0x00, 0x25, 0xE4, 0xE2, 0xFD, 0x08, 0x0B, 0x4C,
  0x30, 0x00, 0xDD, 0x00, 0xFF, 0x01, 0x21, 0x00, 0x05, 0x00,
  0x07, 0x08, 0x03, 0x00, 0xFC, 0x00, 0x00, 0x26, 0x0D, 0x00,
  0x00, 0xFE, 0xFD, 0xFC, 0x00, 0xFC, 0x00, 0xE1, 0xFF, 0x08,
  0x06, 0x3D, 0x2B, 0xFC, 0xFC, 0x00, 0x00, 0xFB, 0x42, 0x01,
  0x23, 0x00, 0x03, 0x03, 0xF5, 0xE5, 0x01, 0x1D, 0x00, 0x2D,
  0x10, 0xFF, 0xE5, 0x01, 0xF8, 0xFD, 0x00, 0x08, 0x00, 0xD2,
  0xDC, 0x06, 0x05, 0xFE, 0x2B, 0xF6, 0xFA, 0xD4, 0x00, 0x2B,
  0x00, 0x01, 0x07, 0xD6, 0x02, 0x06, 0xE5, 0x00, 0x0C, 0x00,
  0x00, 0x00, 0x09, 0x00, 0x01, 0xFA, 0xE2, 0x02, 0x00, 0x0B,
  0x00, 0xD5, 0xD9, 0x07, 0x0F, 0x03, 0x0C, 0xF8, 0xE5, 0xE1,
  0x00, 0x2E, 0x00, 0x1B, 0x25, 0x00, 0x08, 0x05, 0xF7, 0x01,
  0x0D, 0x1E, 0x1A, 0x00, 0x0A, 0x00, 0x00, 0x02, 0xE2, 0x23,
  0x00, 0x10, 0x1A, 0xE3, 0xF8, 0x09, 0x06, 0x05, 0x24, 0xFB,
  0xFE, 0x00, 0x26, 0xFB, 0x00, 0x20, 0x07, 0x00, 0x04, 0x0A,
  0xFF, 0x00, 0x03, 0x00, 0x01, 0x00, 0x05, 0xFF, 0x01, 0x06,
  0x08, 0xFD, 0x00, 0x08, 0x00, 0xE4, 0xFB, 0x0B, 0xF9, 0x03,
  0x04, 0xFE, 0xE7, 0x00, 0x2D, 0x05, 0x00, 0x21, 0x0B, 0x00,
  0x06, 0x0B, 0x08, 0x01, 0xEB, 0x00, 0x00, 0x00, 0x01, 0x00,
  0x03, 0xE8, 0xF7, 0xFB, 0x00, 0x04, 0x00, 0x0A, 0xDE, 0xED,
  0x00, 0xFC, 0x0A, 0xFA, 0xF9, 0x00, 0x00, 0x01, 0x00, 0x28,
  0x0A, 0x00, 0x04, 0x03, 0x02, 0x00, 0x06, 0x00, 0x00, 0x00,
  0x0A, 0x01, 0x28, 0xEA, 0xF7, 0x03, 0x00, 0x05, 0x00, 0xCA,
  0xCC, 0xE3, 0x03, 0x03, 0x08, 0xD5, 0xF6, 0x00, 0x00, 0x02,
  0x00, 0x21, 0x00, 0x00, 0x48, 0x04, 0x07, 0x00, 0x0A, 0x00,
  0x00, 0x00, 0x0F, 0x00, 0x01, 0x04, 0x17, 0x08, 0x00, 0x00,
  0x00, 0xD8, 0xF6, 0xE8, 0x0A, 0x0A, 0x36, 0xD0, 0xFB, 0x00,
  0x00, 0xFF, 0x00, 0xFE, 0x0C, 0x00, 0x35, 0x0B, 0x05, 0x01,
  0x08, 0x23, 0x00, 0xDA, 0x0D, 0x00, 0xE7, 0x04, 0x26, 0xFC,
  0x00, 0x04, 0x00, 0x07, 0xFF, 0x09, 0x0B, 0x54, 0x09, 0xD9,
  0xF8, 0xDD, 0x21, 0xFD, 0x00, 0xE6, 0x05, 0x00, 0x49, 0x01,
  0x02, 0x00, 0x04, 0x00, 0x00, 0x00, 0x0B, 0x00, 0xDE, 0x02,
  0x1E, 0xFC, 0x00, 0x05, 0x00, 0x04, 0x18, 0x07, 0x08, 0x40,
  0x25, 0xF8, 0xFF, 0xD0, 0x26, 0x30, 0x00, 0x00, 0x28, 0x00,
  0x52, 0x03, 0x06, 0x00, 0x07, 0x00, 0x00, 0x00, 0x32, 0xFF,
  0xFF, 0xFC, 0xF6, 0xFF, 0x00, 0xFE, 0x00, 0xFF, 0xFF, 0x01,
  0x04, 0x3C, 0x00, 0xFD, 0xF8, 0x00, 0x00, 0x27, 0x1F, 0xFF,
  0x07, 0x00, 0x43, 0x2A, 0x00, 0x01, 0x02, 0x23, 0x00, 0x00,
  0x03, 0xFF, 0xFE, 0xFC, 0x16, 0x03, 0x00, 0x04, 0x00, 0xFD,
  0xFD, 0xFF, 0x0D, 0x0D, 0x06, 0xF9, 0xFB, 0x00, 0x00, 0x05,
  0x30, 0xFE, 0xFF, 0x00, 0x37, 0x05, 0x04, 0x02, 0x07, 0x00,
  0x00, 0x00, 0x0D, 0x01, 0x01, 0xFA, 0xF5, 0x09, 0x00, 0x0A,
  0x00, 0x03, 0xDD, 0x01, 0x09, 0x00, 0x02, 0xF5, 0xFC, 0x00,
  0x00, 0x02, 0x2F, 0xDE, 0x07, 0x00, 0x09, 0x06, 0xFC, 0x00,
  0x03, 0x23, 0x00, 0x00, 0x0A, 0x00, 0x21, 0x00, 0x00, 0x04,
  0x00, 0x07, 0x00, 0x04, 0xFF, 0x0C, 0x04, 0x0F, 0x27, 0xFF,
  0xF4, 0x00, 0x00, 0x06, 0x33, 0xDF, 0x09, 0x00, 0xFD, 0x0C,
  0x00, 0x01, 0x36, 0x27, 0x21, 0x00, 0x0F, 0x00, 0x20, 0xFD,
  0xFC, 0xFA, 0x00, 0x2C, 0x00, 0x02, 0xFA, 0x09, 0x05, 0x06,
  0xFF, 0x17, 0xF9, 0x00, 0xFF, 0x05, 0x00, 0xDE, 0x03, 0x00,
  0x09, 0x43, 0x00, 0x00, 0x30, 0x00, 0x00, 0x00, 0x11, 0x00,
  0x38, 0xF8, 0xFD, 0xFE, 0x00, 0x01, 0x00, 0x00, 0xD0, 0x2D,
  0x0A, 0x08, 0x08, 0x01, 0xF8, 0x00, 0x01, 0xF8, 0x3C, 0xD3,
  0x06, 0x00, 0x2E, 0x29, 0xFB, 0x01, 0x06, 0x33, 0x00, 0x1D,
  0x0C, 0xFF, 0x05, 0xFF, 0x04, 0x22, 0x00, 0x11, 0x00, 0x00,
  0xD6, 0x01, 0x0B, 0x0C, 0x07, 0xFB, 0xFB, 0x1A, 0x00, 0x3B,
  0x2C, 0xFE, 0x03, 0x00, 0x35, 0x25, 0x09, 0x1A, 0x08, 0x1F,
  0x00, 0x00, 0x37, 0x00, 0xFF, 0xFF, 0xF8, 0x3B, 0x00, 0x00,
  0x00, 0xFF, 0xFA, 0x04, 0x38, 0x39, 0x28, 0xFA, 0xFB, 0x00,
  0x00, 0x01, 0x1E, 0xE6, 0x09, 0x00, 0x0D, 0x26, 0x00, 0x01,
  0x0E, 0x2D, 0x00, 0x1A, 0x0E, 0x00, 0x01, 0x03, 0x01, 0x1F,
  0x00, 0x01, 0x00, 0x07, 0xFB, 0x29, 0x07, 0x43, 0x0B, 0xF7,
  0xFD, 0x00, 0xE4, 0x21, 0x20, 0xFF, 0x00, 0x00, 0x0D, 0x28,
  0x05, 0x01, 0x03, 0x22, 0xD6, 0x00, 0x0B, 0x00, 0x00, 0x03,
  0x03, 0x02, 0x00, 0xFE, 0xCF, 0xFF, 0xF9, 0x33, 0x05, 0x42,
  0x25, 0xFC, 0xD9, 0x00, 0xFF, 0x05, 0x35, 0x00, 0x03, 0x1B,
  0x12, 0x08, 0x09, 0x00, 0x08, 0x38, 0x00, 0x00, 0x0A, 0x00,
  0x02, 0x05, 0x2D, 0x0C, 0x00, 0xF5, 0xDA, 0x01, 0x32, 0xFE,
  0xFB, 0xFE, 0xFF, 0xFA, 0x2F, 0x00, 0x00, 0xFD, 0x00, 0xD3,
  0xFD, 0xE6, 0x03, 0xFB, 0x30, 0x00, 0x21, 0x00, 0x00, 0x00,
  0xE8, 0xFF, 0xFD, 0xFC, 0x09, 0x05, 0x00, 0xFD, 0xE5, 0x02,
  0xFF, 0xFA, 0x01, 0x01, 0x08, 0xF7, 0x08, 0x00, 0x00, 0x00,
  0x00, 0xE0, 0x0A, 0x00, 0x05, 0x02, 0x02, 0x01, 0xFC, 0x00,
  0x00, 0x00, 0x0A, 0x00, 0xFE, 0xFF, 0x0F, 0x08, 0x00, 0xFD,
  0xDA, 0x2B, 0x16, 0xFE, 0xE4, 0xFE, 0xFD, 0xF7, 0x0B, 0x00,
  0x00, 0x02, 0xDE, 0xDA, 0x04, 0x00, 0x39, 0x1B, 0x28, 0x00,
  0x2B, 0x00, 0xD3, 0x00, 0x03, 0xFF, 0xFF, 0xFC, 0x0A, 0x07,
  0x00, 0xFC, 0xDE, 0x29, 0xFD, 0xFB, 0xDA, 0x1A, 0xFD, 0xFD,
  0x0C, 0x00, 0x00, 0xFF, 0x00, 0xCE, 0xFE, 0xE4, 0x05, 0x01,
  0x1E, 0x01, 0xFB, 0x00, 0xD8, 0x00, 0x02, 0x00, 0x00, 0x02,
  0x30, 0x3A, 0x00, 0xFC, 0xD1, 0x07, 0xFA, 0xF9, 0xE2, 0x04,
  0x02, 0x04, 0x2C, 0x00, 0x00, 0xFB, 0x00, 0xBC, 0xF8, 0x00,
  0xFD, 0xFB, 0x2E, 0x02, 0x03, 0x00, 0xFE, 0x00, 0xFC, 0x00,
  0xFF, 0x01, 0x06, 0xFE, 0x00, 0xFB, 0xCF, 0x38, 0xFB, 0xF5,
  0xD5, 0x04, 0x03, 0xFE, 0x2C, 0x00, 0x00, 0xFC, 0x00, 0xAC,
  0xF8, 0xE2, 0xFC, 0xFE, 0x1A, 0x01, 0x21, 0x00, 0x00, 0x00,
  0x02, 0xE2, 0xFE, 0xFE, 0x13, 0x04, 0x00, 0xFE, 0xE4, 0x08,
  0x20, 0xF8, 0xD5, 0xFF, 0x03, 0xFB, 0x07, 0x00, 0xE3, 0x03,
  0x00, 0xBC, 0xFD, 0xE2, 0x04, 0xFF, 0xF9, 0x00, 0x00, 0x00,
  0x00, 0x00, 0x02, 0x00, 0xFD, 0xFA, 0x0E, 0x04, 0x00, 0xFF,
  0xD9, 0x23, 0xF8, 0xFA, 0xE7, 0xF9, 0x00, 0xFF, 0x0E, 0x00,
  0x00, 0x04, 0xDB, 0xD5, 0xFD, 0x00, 0xF2, 0xFD, 0x19, 0x00,
  0xF8, 0x00, 0x00, 0x00, 0xF5, 0x00, 0x01, 0xFD, 0x10, 0x28,
  0x00, 0x1F, 0x00, 0x00, 0x06, 0xFB, 0xD4, 0xFF, 0x02, 0x02,
  0x12, 0xE1, 0x00, 0x02, 0xE6, 0xC9, 0x00, 0x00, 0x06, 0x01,
  0xFE, 0x01, 0xFF, 0x00, 0xCF, 0x00, 0x03, 0x00, 0xFF, 0x03,
  0x0A, 0x03, 0x00, 0xF2, 0xD6, 0xFF, 0xFB, 0xFE, 0xDE, 0xFF,
  0x02, 0xFE, 0x0C, 0x00, 0x00, 0xFD, 0x00, 0xBF, 0x08, 0x00,
  0xFF, 0x02, 0x2B, 0x02, 0xFA, 0x00, 0xCE, 0xE4, 0xFF, 0xFF,
  0xFF, 0xFE, 0x0C, 0x08, 0x00, 0xFD, 0xD1, 0x2A, 0x1C, 0x03,
  0xDF, 0xF9, 0x0E, 0xFC, 0x37, 0x00, 0xDD, 0xFC, 0x00, 0xC1,
  0x00, 0x00, 0x05, 0x03, 0x2A, 0x01, 0x30, 0x00, 0xE1, 0x00,
  0x04, 0x01, 0x1D, 0xFD, 0x2F, 0x06, 0x00, 0x03, 0xDD, 0x26,
  0xFE, 0x01, 0xEA, 0x05, 0x05, 0x04, 0x13, 0x00, 0x00, 0x00,
  0x00, 0x01, 0x03, 0x00, 0xF4, 0xFF, 0x26, 0x00, 0xFB, 0x00,
  0xD7, 0x00, 0xFD, 0x00, 0x1C, 0x00, 0x02, 0x05, 0x00, 0x03,
  0xE6, 0x37, 0xF8, 0x06, 0xF1, 0x05, 0x06, 0xF5, 0x11, 0x00,
  0x00, 0xFF, 0x00, 0xFD, 0x05, 0x00, 0x07, 0xFF, 0x01, 0x00,
  0x2B, 0x00, 0xE6, 0x00, 0x01, 0xFF, 0x25, 0x02, 0x16, 0x0F,
  0x00, 0x1E, 0x00, 0xFF, 0x24, 0x01, 0xC1, 0xF4, 0x02, 0xFF,
  0x14, 0x00, 0x00, 0x01, 0x00, 0xE3, 0x07, 0x00, 0x03, 0x05,
  0x27, 0x00, 0xFE, 0x00, 0xD5, 0x00, 0xF8, 0x01, 0xFF, 0x02,
  0x15, 0x2D, 0x00, 0x0F, 0x00, 0x04, 0x2B, 0xFE, 0xD5, 0xFF,
  0xFF, 0x01, 0x10, 0x00, 0xE3, 0xFF, 0x00, 0xD7, 0x03, 0x00,
  0x03, 0x00, 0x2A, 0x00, 0xF5, 0xE6, 0x00, 0x00, 0x00, 0x00,
  0x1B, 0xFD, 0x0C, 0x06, 0x00, 0xF8, 0x00, 0x34, 0xFC, 0xFE,
  0xD1, 0x07, 0x00, 0xF9, 0x0C, 0x00, 0xDB, 0xFA, 0x00, 0xD5,
  0xFE, 0x00, 0xFA, 0x04, 0xF6, 0x00, 0x14, 0x00, 0x00, 0x00,
  0xFB, 0xD6, 0x1C, 0xFE, 0x0D, 0x04, 0x00, 0x1C, 0x00, 0x29,
  0xFE, 0xFB, 0xFA, 0x19, 0xFB, 0x28, 0x07, 0x00, 0xD5, 0xFD,
  0x00, 0xC3, 0xFF, 0x00, 0xFF, 0xFA, 0x00, 0xFF, 0x06, 0x00,
  0x00, 0x00, 0x01, 0x00, 0x1C, 0xF9, 0x06, 0x2E, 0x00, 0xFB,
  0x00, 0xFE, 0x2A, 0xFF, 0xDF, 0x22, 0x04, 0x04, 0x06, 0x00,
  0x00, 0xFA, 0xDC, 0xCE, 0x00, 0x00, 0xF7, 0x19, 0x1B, 0x01,
  0xFC, 0x00, 0xD1, 0x00, 0x02, 0xFF, 0xFF, 0xFA, 0x07, 0x35,
  0x00, 0x2B, 0x00, 0x01, 0x28, 0x02, 0xDE, 0x29, 0xFF, 0xFD,
  0x06, 0x00, 0x00, 0xF9, 0xD4, 0xE6, 0xFD, 0x00, 0x01, 0xFF,
  0x26, 0x00, 0x00, 0x00, 0xD0, 0x00, 0x1E, 0x00, 0x23, 0x02,
  0x0E, 0x06, 0x00, 0x28, 0xD6, 0x01, 0x01, 0x04, 0xDD, 0x02,
  0x01, 0xFF, 0x03, 0x00, 0xE1, 0xF8, 0x00, 0xD8, 0x09, 0x00,
  0x01, 0x03, 0x2A, 0xFF, 0xF7, 0x00, 0xDA, 0x00, 0xFC, 0x00,
  0x00, 0x01, 0x0B, 0x04, 0x00, 0xFA, 0xE1, 0x26, 0xFE, 0x0A,
  0xF9, 0x01, 0x07, 0xFE, 0x32, 0x00, 0x00, 0x01, 0x00, 0xD6,
  0x06, 0x00, 0x03, 0x26, 0x2B, 0x00, 0xF6, 0x00, 0x00, 0x00,
  0x00, 0x00, 0x1C, 0xF7, 0x0B, 0x07, 0x00, 0xFD, 0x00, 0xFB,
  0xFF, 0x06, 0x04, 0xFE, 0x05, 0x03, 0x30, 0x00, 0xFF, 0x01,
  0x00, 0x01, 0x01, 0x00, 0xFE, 0x1A, 0x02, 0x01, 0x27, 0x00,
  0x00, 0xE4, 0x01, 0x00, 0x01, 0xFD, 0x38, 0x06, 0x00, 0xFE,
  0x00, 0x39, 0xF3, 0x00, 0x02, 0xFD, 0x02, 0xFD, 0x35, 0x00,
  0x00, 0x00, 0x00, 0x00, 0xFA, 0x00, 0x0C, 0xFB, 0x2B, 0x01,
  0x0C, 0x00, 0xE6, 0x00, 0x0A, 0x01, 0x00, 0xF7, 0x09, 0xF9,
  0x00, 0xF9, 0xE3, 0x02, 0xF8, 0xFD, 0xFD, 0xFB, 0x06, 0xF6,
  0x31, 0x00, 0xE3, 0xFF, 0x00, 0xFF, 0x03, 0x00, 0x06, 0x03,
  0x36, 0x00, 0xF5, 0x00, 0x00, 0x00, 0x02, 0x01, 0x00, 0xFC,
  0x31, 0x04, 0x00, 0xF8, 0x00, 0x07, 0x02, 0x02, 0xFC, 0xFF,
  0x03, 0xFA, 0x35, 0x00, 0x00, 0xFE, 0x00, 0xFE, 0x04, 0x00,
  0x01, 0x00, 0x2B, 0xFF, 0xF4, 0x00, 0x00, 0x00, 0x04, 0x01,
  0x00, 0xF7, 0x05, 0xFE, 0x00, 0xFF, 0x00, 0x3A, 0xFC, 0xFE,
  0xFD, 0xFA, 0x03, 0xF7, 0x07, 0x00, 0x00, 0x03, 0x00, 0xE5,
  0xFE, 0x00, 0x02, 0xFE, 0x24, 0x00, 0x04, 0x00, 0x00, 0x00,
  0xFB, 0x00, 0x24, 0xF8, 0x0D, 0xFF, 0x00, 0x00, 0x00, 0x24,
  0xF5, 0xFF, 0x00, 0xFA, 0x05, 0x1E, 0x04, 0x00, 0x00, 0xFC,
  0x00, 0x00, 0xF9, 0xE3, 0xFF, 0xFE, 0x27, 0x00, 0x22, 0x00,
  0x00, 0x00, 0x03, 0x00, 0x1C, 0xFF, 0x06, 0x06, 0x00, 0x00,
  0x00, 0x01, 0xFE, 0xFE, 0x02, 0x03, 0x03, 0xFB, 0x33, 0x00,
  0xFE, 0x01, 0x00, 0xD6, 0x02, 0x00, 0xF9, 0x00, 0x26, 0xDD,
  0xF5, 0x00, 0x00, 0x00, 0xF8, 0x00, 0x1F, 0x01, 0x10, 0x03,
  0x00, 0x08, 0x00, 0xFE, 0x03, 0xE4, 0x05, 0x03, 0x02, 0x02,
  0x09, 0x00, 0x00, 0xF9, 0x00, 0xE6, 0xFF, 0x00, 0x01, 0xFA,
  0x07, 0x00, 0xFD, 0x00, 0x00, 0x00, 0xFC, 0x01, 0x18, 0x02,
  0x0D, 0xFC, 0x00, 0x02, 0xE3, 0x26, 0xFF, 0xFB, 0xFF, 0xFC,
  0x06, 0x00, 0x0E, 0x00, 0xE0, 0xFF, 0xE6, 0xD5, 0x03, 0x00,
  0xFE, 0xFD, 0x22, 0x00, 0xF9, 0x00, 0x00, 0x00, 0x07, 0x00,
  0xFF, 0x01, 0x01, 0xFB, 0x00, 0xFC, 0x00, 0x36, 0xFE, 0xFF,
  0xF8, 0x01, 0x03, 0x3D, 0x2B, 0x00, 0xE3, 0x00, 0x00, 0x00,
  0xFC, 0x00, 0xFF, 0xFE, 0x3A, 0xFF, 0xFB, 0x00, 0x00, 0x00,
  0x00, 0x00, 0xFE, 0xFD, 0x05, 0x0A, 0x00, 0x14, 0x00, 0x01,
  0x01, 0xDE, 0x00, 0xF8, 0x35, 0xFD, 0x05, 0x00, 0x00, 0x02,
  0x00, 0xFF, 0xFE, 0xD2, 0x01, 0x14, 0xF9, 0x00, 0x22, 0x00,
  0xFF, 0x00, 0x01, 0x01, 0x1D, 0xFF, 0x00, 0x04, 0x00, 0xF9,
  0x00, 0x2C, 0xFD, 0xF8, 0x02, 0xFD, 0x09, 0xFE, 0x2F, 0x00,
  0x00, 0xFF, 0xE3, 0xFD, 0xF8, 0x00, 0x06, 0xFD, 0x2F, 0x00,
  0x4B, 0xE5, 0x00, 0x00, 0x06, 0x00, 0x27, 0xFA, 0x0D, 0x02,
  0x00, 0xFD, 0x00, 0x23, 0xF7, 0xFB, 0xFE, 0xFD, 0x03, 0xFD,
  0x33, 0x00, 0x00, 0xFF, 0x00, 0xE5, 0xFF, 0x00, 0x04, 0xFF,
  0x25, 0xFF, 0xFB, 0x00, 0xE6, 0x00, 0x00, 0x01, 0x1E, 0x17,
  0x37, 0x04, 0x00, 0xFC, 0x00, 0x05, 0x28, 0xFE, 0xE7, 0xFF,
  0xFF, 0x02, 0x03, 0x00, 0x00, 0xFD, 0x00, 0x00, 0x00, 0x00,
  0x06, 0x00, 0xFB, 0x00, 0xFA, 0x00, 0xD7, 0x00, 0x00, 0x01,
  0xFD, 0xFE, 0x0B, 0x03, 0x00, 0xFB, 0x00, 0x02, 0xFD, 0xFC,
  0x03, 0xFF, 0x04, 0xFB, 0x06, 0x00, 0x00, 0xFC, 0x00, 0xFF,
  0xFD, 0xE6, 0xF9, 0xFA, 0x19, 0xFE, 0xF7, 0xE3, 0x00, 0x00,
  0xF2, 0xE4, 0x1E, 0x00, 0x0E, 0xFB, 0x00, 0xFE, 0x00, 0x03,
  0x33, 0xF5, 0xFE, 0xFB, 0xFD, 0x03, 0x06, 0x00, 0x00, 0xFB,
  0x00, 0x00, 0xF8, 0xE0, 0x02, 0xF9, 0x19, 0x00, 0xFE, 0x00,
  0x00, 0x00, 0xFD, 0x00, 0x28, 0xF9, 0x07, 0xFF, 0x00, 0xFE,
  0x00, 0x03, 0x2E, 0xFD, 0x01, 0x03, 0xFB, 0x3A, 0x0B, 0x00,
  0x00, 0x02, 0x00, 0x00, 0xFE, 0xD5, 0xF4, 0xFC, 0xFD, 0x00,
  0xF9, 0x00, 0x00, 0x00, 0xFB, 0x01, 0xFE, 0xFF, 0x02, 0x03,
  0x00, 0xFF, 0x00, 0xF9, 0xF5, 0xFE, 0xD3, 0xFD, 0x07, 0xFB,
  0x40, 0x00, 0x01, 0xFE, 0x00, 0xDC, 0xFD, 0xE3, 0x01, 0xFF,
  0xFB, 0x00, 0x01, 0x00, 0xDD, 0x00, 0x03, 0x01, 0x02, 0xFC,
  0x09, 0x0F, 0x00, 0xF8, 0xE2, 0x06, 0x15, 0xDE, 0xFD, 0x05,
  0x0A, 0xF6, 0x07, 0x00, 0xD3, 0x04, 0x00, 0xFF, 0x03, 0x00,
  0x08, 0x05, 0x26, 0x01, 0xFA, 0x00, 0xD9, 0x00, 0x00, 0xFF,
  0x28, 0x01, 0x0B, 0xFF, 0x00, 0xFD, 0x00, 0x1C, 0xF9, 0x00,
  0xD9, 0x17, 0x09, 0xF5, 0x30, 0x00, 0x00, 0xF6, 0x00, 0xFF,
  0xF3, 0x00, 0xFA, 0x19, 0x39, 0x00, 0x00, 0x00, 0x00, 0x00,
  0x08, 0x01, 0x1F, 0xFD, 0x07, 0x01, 0x00, 0x02, 0xDD, 0xF8,
  0x30, 0xF6, 0x01, 0xFE, 0x05, 0xF9, 0x08, 0x00, 0x00, 0xF9,
  0x00, 0xE5, 0xFE, 0x00, 0xFA, 0xF6, 0x00, 0xFF, 0x00, 0x00,
  0x00, 0x00, 0x07, 0x00, 0x29, 0x00, 0x01, 0x22, 0x00, 0xFE,
  0x00, 0x01, 0x1E, 0xF8, 0x08, 0x07, 0x00, 0xF9, 0x38, 0x00,
  0x00, 0x01, 0x00, 0x01, 0x01, 0x00, 0x00, 0xFF, 0x2C, 0x01,
  0x02, 0x00, 0x00, 0x00, 0xF6, 0xFF, 0x24, 0x04, 0x0D, 0x05,
  0x00, 0x00, 0xE2, 0x00, 0x37, 0xFD, 0xE7, 0x02, 0xFF, 0xFF,
  0x3B, 0x00, 0xFF, 0x05, 0x00, 0x01, 0x02, 0xDE, 0xF6, 0x22,
  0x22, 0x00, 0xF6, 0x00, 0x00, 0x00, 0xFE, 0x02, 0x1F, 0x1E,
  0x10, 0x06, 0x00, 0xF0, 0x00, 0x2B, 0x1F, 0xFE, 0x01, 0x02,
  0xFB, 0x2F, 0x0A, 0x00, 0x01, 0xE0, 0x00, 0xDD, 0xFB, 0x00,
  0x05, 0xFE, 0xFA, 0xFF, 0xFD, 0x00, 0xD9, 0x00, 0xFB, 0x00,
  0x1E, 0xFD, 0x0B, 0x0E, 0x00, 0xFD, 0x00, 0x0E, 0x24, 0xFB,
  0xFF, 0x04, 0xFE, 0x01, 0x42, 0x00, 0x00, 0x00, 0x00, 0xE2,
  0xFC, 0x00, 0x05, 0x00, 0x01, 0x01, 0x00, 0x00, 0x00, 0x00,
  0xFB, 0x01, 0xFE, 0x00, 0x08, 0x0D, 0x00, 0xFD, 0x00, 0x02,
  0xFC, 0xFE, 0x07, 0x00, 0x05, 0x28, 0x31, 0x00, 0x00, 0xFE,
  0x00, 0x01, 0x03, 0x00, 0xFE, 0x03, 0xFF, 0x00, 0x1C, 0x00,
  0x00, 0x00, 0xF7, 0x00, 0x23, 0xFC, 0x08, 0xFF, 0x00, 0xFC,
  0x00, 0x23, 0xFD, 0xFC, 0x06, 0x0A, 0x0A, 0xFD, 0x33, 0x00,
  0x00, 0x01, 0xE0, 0x01, 0x05, 0x00, 0xF8, 0xFF, 0xF9, 0x00,
  0xF8, 0xE5, 0x00, 0x00, 0x01, 0x01, 0xFC, 0x24, 0xFC, 0x0E,
  0x00, 0x01, 0x00, 0x0C, 0xDF, 0x22, 0xFE, 0xCD, 0x04, 0xFE,
  0xF4, 0x00, 0x00, 0x0D, 0x1C, 0x00, 0x23, 0x00, 0x30, 0x01,
  0x11, 0x00, 0x10, 0x00, 0x00, 0x00, 0x05, 0x24, 0x01, 0xE3,
  0xFB, 0x09, 0x00, 0xFC, 0x01, 0x0D, 0xE2, 0xFF, 0x06, 0xCC,
  0x05, 0x01, 0xF1, 0x00, 0x00, 0x04, 0x00, 0xDA, 0xFF, 0x00,
  0x03, 0xFC, 0x3B, 0x1C, 0x06, 0x00, 0x00, 0x00, 0x00, 0x1A,
  0xE2, 0xFE, 0xF4, 0x01, 0x00, 0x06, 0x00, 0x0B, 0xC1, 0x03,
  0x02, 0xE4, 0x04, 0x03, 0xFA, 0x00, 0x00, 0x05, 0x23, 0xE1,
  0x02, 0x00, 0x03, 0x00, 0x07, 0x01, 0x07, 0x00, 0x00, 0x00,
  0x02, 0x1B, 0x02, 0x04, 0xFE, 0x04, 0x00, 0x05, 0x00, 0x05,
  0x04, 0x00, 0x02, 0xFE, 0x04, 0x08, 0xFE, 0x00, 0x00, 0x08,
  0x26, 0x00, 0x01, 0x00, 0x04, 0xFD, 0x06, 0x01, 0x09, 0x00,
  0x00, 0x00, 0x04, 0x01, 0x01, 0x01, 0xFD, 0x04, 0x00, 0xE7,
  0x00, 0x0A, 0x01, 0x05, 0xFD, 0xF8, 0x03, 0xE5, 0x00, 0x00,
  0x00, 0x1F, 0x00, 0x00, 0x09, 0x00, 0x04, 0x03, 0x0A, 0x00,
  0x28, 0x00, 0x00, 0x00, 0x00, 0x00, 0x02, 0x02, 0xE7, 0x27,
  0x00, 0x03, 0x00, 0x05, 0x04, 0x08, 0xF8, 0xFD, 0xE7, 0x0C,
  0x07, 0x00, 0x00, 0x02, 0x00, 0x01, 0x01, 0x00, 0x0A, 0x20,
  0x06, 0x00, 0x2A, 0x00, 0x00, 0x00, 0xFB, 0x01, 0x01, 0x07,
  0x01, 0x03, 0x00, 0x03, 0x00, 0x21, 0x0E, 0x02, 0x01, 0x01,
  0x05, 0x2F, 0x09, 0x00, 0x00, 0x23, 0x00, 0x01, 0xFF, 0x00,
  0x07, 0x02, 0x0B, 0x00, 0x20, 0x00, 0x00, 0x00, 0x04, 0x00,
  0x01, 0x07, 0x01, 0x09, 0x00, 0x00, 0x00, 0x07, 0x06, 0xFF,
  0xFE, 0xD4, 0x0C, 0x01, 0xFF, 0xDD, 0x00, 0x02, 0x20, 0x01,
  0x03, 0x00, 0x25, 0xFE, 0x00, 0x00, 0x2D, 0x00, 0xE5, 0x00,
  0x07, 0x1D, 0x1E, 0x04, 0xFF, 0x22, 0x00, 0x07, 0x00, 0x0A,
  0xDC, 0x01, 0xFD, 0xD0, 0x05, 0xF0, 0xF7, 0x00, 0x1C, 0x0B,
  0x00, 0xFF, 0x04, 0x00, 0x0B, 0x00, 0x30, 0x02, 0x3E, 0x00,
  0x00, 0x21, 0x05, 0x00, 0x01, 0xFD, 0x03, 0x00, 0x00, 0x07,
  0x00, 0x0C, 0xBB, 0x1E, 0xFD, 0xFB, 0x09, 0xE3, 0x03, 0x00,
  0x26, 0x28, 0x31, 0x00, 0x05, 0x00, 0x00, 0x03, 0x09, 0x1F,
  0x2C, 0x00, 0x00, 0x00, 0x03, 0x00, 0x02, 0x0A, 0x01, 0x0B,
  0x00, 0x03, 0xE4, 0x09, 0xE5, 0xFD, 0xFD, 0xFA, 0x00, 0x04,
  0xFE, 0x00, 0x00, 0x06, 0x00, 0x00, 0x07, 0x1D, 0x29, 0x07,
  0x05, 0x00, 0x38, 0x00, 0xDC, 0x00, 0x04, 0x00, 0x00, 0x03,
  0xF7, 0x02, 0x00, 0xFB, 0x00, 0x03, 0x2D, 0x01, 0xFC, 0xFC,
  0x0C, 0x03, 0xFE, 0xE1, 0x00, 0x1D, 0x00, 0xD6, 0x06, 0x00,
  0x0A, 0xFE, 0xFE, 0xFF, 0x1D, 0x20, 0x00, 0x00, 0x09, 0x00,
  0x01, 0x07, 0x05, 0x05, 0x00, 0x02, 0x00, 0x02, 0x0A, 0x00,
  0xF9, 0xFD, 0x02, 0xEC, 0x01, 0x00, 0x20, 0x04, 0x00, 0xDA,
  0x02, 0x00, 0x05, 0x05, 0x07, 0x22, 0x34, 0x00, 0x00, 0x00,
  0x00, 0x01, 0x21, 0x03, 0x01, 0x07, 0x00, 0x25, 0x00, 0x06,
  0xFE, 0x05, 0xFB, 0x03, 0x05, 0xFE, 0x01, 0x00, 0x00, 0x04,
  0x2B, 0x00, 0x06, 0x1E, 0xFE, 0x00, 0x0C, 0x00, 0x04, 0x00,
  0xE4, 0x1C, 0x02, 0x01, 0x02, 0x09, 0xE3, 0x0B, 0x00, 0xF8,
  0x00, 0x03, 0xFF, 0x00, 0x01, 0xDE, 0x0A, 0xFF, 0x04, 0xDD,
  0x00, 0x04, 0x00, 0x00, 0x0B, 0x00, 0x06, 0x27, 0x02, 0x00,
  0x37, 0x00, 0x00, 0x00, 0x05, 0x00, 0xFE, 0x0A, 0x09, 0x05,
  0x00, 0x01, 0x00, 0x09, 0xD5, 0x05, 0xFD, 0xDE, 0x03, 0x03,
  0xDE, 0x00, 0x00, 0x02, 0x00, 0x00, 0x01, 0x00, 0x0B, 0x04,
  0x33, 0x00, 0x0D, 0x00, 0x00, 0x00, 0x01, 0x00, 0x00, 0x01,
  0x02, 0x03, 0x00, 0xFD, 0x00, 0x07, 0xDF, 0x04, 0x03, 0xFF,
  0xFD, 0x00, 0x03, 0x00, 0x01, 0x00, 0x00, 0x01, 0x01, 0x00,
  0x04, 0x22, 0x02, 0x00, 0x2D, 0x00, 0x00, 0x00, 0x05, 0x00,
  0xDD, 0xFE, 0x01, 0x09, 0x00, 0x04, 0x00, 0xF2, 0xBC, 0x00,
  0x05, 0xCF, 0x06, 0x07, 0x08, 0x00, 0x00, 0x07, 0x00, 0x00,
  0x07, 0x00, 0x27, 0x07, 0x25, 0x00, 0x2F, 0x1B, 0x00, 0x00,
  0x04, 0x20, 0x00, 0x01, 0x06, 0x2B, 0x00, 0x04, 0x00, 0x09,
  0xED, 0x05, 0xFC, 0x05, 0x0A, 0xF2, 0xF2, 0x00, 0x00, 0x0A,
  0x25, 0x00, 0x06, 0x00, 0x2B, 0x05, 0x08, 0x00, 0x1F, 0x00,
  0x00, 0x00, 0xFF, 0x00, 0xE0, 0x01, 0x02, 0x0C, 0x00, 0xFB,
  0x00, 0x0A, 0x02, 0x1C, 0xFA, 0xF8, 0x08, 0xEB, 0x08, 0xE1,
  0x00, 0x3F, 0x24, 0xDD, 0x03, 0x00, 0x05, 0x01, 0x09, 0x2E,
  0x01, 0x00, 0xC9, 0x00, 0x08, 0xE5, 0x00, 0x04, 0xE3, 0x0F,
  0x00, 0x04, 0x00, 0x31, 0x0B, 0x1E, 0x07, 0xFD, 0x04, 0x11,
  0x05, 0x00, 0x00, 0x07, 0x00, 0x01, 0x08, 0x00, 0x0F, 0x05,
  0x07, 0x1D, 0x0C, 0x00, 0xD7, 0x00, 0x01, 0x00, 0x00, 0x05,
  0xDD, 0x09, 0x00, 0x02, 0x00, 0x2E, 0x3C, 0x06, 0xFC, 0xFC,
  0x08, 0x3B, 0x09, 0xD7, 0x00, 0x04, 0x00, 0x1C, 0x08, 0x00,
  0x03, 0x00, 0x2F, 0x00, 0x04, 0x00, 0x00, 0x00, 0xFF, 0x00,
  0x05, 0x06, 0xF8, 0x09, 0x00, 0x00, 0x00, 0x0C, 0x03, 0x04,
  0x01, 0xFD, 0x02, 0x0E, 0xE7, 0xC4, 0x00, 0x07, 0x00, 0x00,
  0x01, 0x00, 0xF3, 0x02, 0x0D, 0x00, 0x0A, 0x00, 0x00, 0x00,
  0x02, 0x01, 0x21, 0x04, 0x06, 0x0B, 0x00, 0x05, 0xE2, 0x06,
  0x07, 0x03, 0xF7, 0xD5, 0x27, 0xEF, 0xF0, 0x00, 0x00, 0x08,
  0x00, 0x00, 0x0B, 0x00, 0x08, 0x01, 0x2E, 0x22, 0x22, 0x00,
  0x00, 0x00, 0x08, 0x1E, 0x02, 0xEC, 0x01, 0x07, 0x00, 0xFB,
  0xE0, 0x0B, 0xE0, 0x01, 0xF9, 0xC4, 0x05, 0x06, 0x03, 0x00,
  0x00, 0x24, 0x00, 0x01, 0x05, 0x00, 0x36, 0xFE, 0x25, 0x20,
  0x25, 0x00, 0x00, 0x00, 0x05, 0xFF, 0xFE, 0x0B, 0x00, 0x08,
  0x00, 0xFC, 0xE5, 0x07, 0xEA, 0x00, 0xFB, 0xF2, 0x01, 0x07,
  0x06, 0x00, 0x00, 0x07, 0x26, 0xE7, 0x02, 0x00, 0x0B, 0x01,
  0x0B, 0x00, 0x2E, 0x00, 0x00, 0x00, 0x09, 0x00, 0x01, 0x01,
  0x00, 0x07, 0x00, 0xFF, 0xE3, 0x07, 0x05, 0x02, 0xFF, 0x00,
  0x04, 0xDE, 0x05, 0x00, 0x00, 0x07, 0x00, 0x00, 0x06, 0x00,
  0x02, 0x01, 0x05, 0x00, 0x28, 0x00, 0xCF, 0x00, 0xFB, 0x00,
  0xFF, 0x02, 0xFC, 0x08, 0x00, 0xFC, 0x00, 0x07, 0x07, 0x00,
  0xFE, 0xFB, 0x0C, 0xE1, 0x1C, 0x00, 0x00, 0x01, 0x00, 0xE1,
  0x00, 0x00, 0x07, 0x02, 0x00, 0x1C, 0x29, 0x00, 0xD6, 0x00,
  0x0A, 0xE2, 0x03, 0x01, 0xD1, 0x07, 0x00, 0x02, 0x00, 0x03,
  0x02, 0x03, 0xFF, 0xE6, 0x04, 0xFF, 0x00, 0xE0, 0x00, 0x29,
  0x00, 0x00, 0x02, 0x23, 0x03, 0xFF, 0x05, 0x00, 0x33, 0x00,
  0x00, 0x00, 0xFF, 0x01, 0x01, 0x01, 0x02, 0x01, 0x00, 0x04,
  0x00, 0x00, 0x04, 0xFF, 0xFE, 0x00, 0x00, 0xFE, 0xE3, 0x00,
  0x00, 0x29, 0x00, 0xE1, 0x03, 0x27, 0xE7, 0xFE, 0x01, 0x00,
  0x05, 0x00, 0x00, 0x00, 0x0A, 0x00, 0xFF, 0x01, 0xF7, 0x46,
  0x00, 0xFD, 0x00, 0x02, 0xFF, 0xFC, 0x03, 0xD6, 0x09, 0xE1,
  0xBD, 0xDC, 0x00, 0x08, 0x00, 0x00, 0x03, 0x00, 0x07, 0xFB,
  0x0A, 0x1B, 0x24, 0x00, 0x00, 0x00, 0x08, 0x00, 0x02, 0xFD,
  0xF9, 0x09, 0x00, 0x00, 0x00, 0x09, 0xDA, 0x02, 0xFE, 0x06,
  0x03, 0xFE, 0xCF, 0x00, 0x00, 0x08, 0x26, 0x00, 0x06, 0x1F,
  0x0C, 0xFF, 0x01, 0x2F, 0x05, 0x00, 0x01, 0x00, 0x02, 0xFF,
  0xDA, 0xFF, 0xFB, 0x0A, 0x00, 0xFE, 0xD5, 0x08, 0xD9, 0x03,
  0x02, 0x04, 0x0C, 0xEB, 0xFE, 0xE5, 0x00, 0x05, 0x00, 0xDD,
  0x07, 0x00, 0x2F, 0x02, 0x08, 0x01, 0x2B, 0x00, 0x00, 0x00,
  0x09, 0x21, 0x01, 0xFC, 0x02, 0x06, 0x00, 0x01, 0x00, 0xF0,
  0xE1, 0x01, 0x00, 0x02, 0x02, 0xEB, 0x02, 0xE6, 0x00, 0x0D,
  0x2C, 0x00, 0xFF, 0x00, 0x04, 0xFE, 0x09, 0x00, 0x26, 0x00,
  0x00, 0x00, 0x01, 0x02, 0xE1, 0x01, 0x1E, 0x0D, 0x00, 0x02,
  0x00, 0x05, 0x0A, 0x03, 0xFF, 0x06, 0x03, 0xF3, 0x09, 0xD9,
  0xE4, 0x39, 0x00, 0x00, 0x25, 0x00, 0x2E, 0x04, 0x07, 0x00,
  0x1D, 0x00, 0x00, 0x00, 0x04, 0x00, 0xFE, 0x05, 0x01, 0x0F,
  0x00, 0x00, 0x00, 0x38, 0x0E, 0x05, 0xFA, 0x02, 0x01, 0x0C,
  0x00, 0xDA, 0x00, 0x0B, 0x1A, 0x00, 0x03, 0x00, 0x36, 0x03,
  0x05, 0x01, 0x44, 0x00, 0xDE, 0x00, 0x05, 0x00, 0xFF, 0x06,
  0xE2, 0x0B, 0x00, 0x00, 0x00, 0x08, 0x0B, 0x04, 0xE2, 0x06,
  0x09, 0x0A, 0x09, 0xD5, 0x00, 0x03, 0x00, 0x01, 0x05, 0x00,
  0x06, 0x03, 0x0B, 0x00, 0x2E, 0x00, 0x00, 0x00, 0x04, 0x00,
  0x04, 0x04, 0x01, 0x0C, 0x00, 0x01, 0x00, 0x29, 0x05, 0x02,
  0x00, 0xE3, 0x0C, 0x06, 0x06, 0xD3, 0x00, 0x06, 0x00, 0x00,
  0x08, 0x00, 0x0B, 0x08, 0x28, 0x00, 0x05, 0x00, 0x00, 0x00,
  0x06, 0x00, 0x03, 0x00, 0x03, 0x32, 0x00, 0x27, 0x00, 0x22,
  0x0E, 0x01, 0xED, 0xD4, 0x09, 0xE4, 0x04, 0xD4, 0x00, 0x0C,
  0x00, 0x00, 0x01, 0x00, 0x08, 0x06, 0x08, 0x01, 0x34, 0x00,
  0x00, 0x00, 0x02, 0x02, 0x04, 0x08, 0x09, 0x05, 0x00, 0xFD,
  0x00, 0x09, 0xE2, 0x05, 0xFA, 0xFD, 0x07, 0xE0, 0x08, 0x00,
  0xFF, 0x34, 0x00, 0xE0, 0x04, 0x00, 0x05, 0x03, 0x0A, 0x27,
  0x1F, 0x00, 0x00, 0x00, 0x04, 0x00, 0xE1, 0x09, 0x0B, 0x2F,
  0x00, 0x00, 0x00, 0xF3, 0x09, 0x06, 0xFF, 0xFA, 0x04, 0x09,
  0x08, 0xDE, 0x00, 0x2B, 0x1A, 0x00, 0x20, 0x00, 0x28, 0xFD,
  0x34, 0x00, 0x0B, 0x00, 0x00, 0x00, 0x00, 0x00, 0xFF, 0x05,
  0x03, 0x08, 0x00, 0xFF, 0xDF, 0x0B, 0x06, 0x04, 0xFD, 0xFE,
  0x0B, 0xFE, 0x00, 0x00, 0x00, 0x00, 0x00, 0x00, 0x06, 0x00,
  0x06, 0x08, 0x06, 0x00, 0x28, 0x21, 0x00, 0x00, 0x05, 0x00,
  0x03, 0x01, 0x02, 0x03, 0x00, 0xE8, 0x00, 0xFD, 0x07, 0x06,
  0x07, 0x01, 0x0A, 0x03, 0x04, 0x00, 0x00, 0x21, 0x00, 0x00,
  0x08, 0x00, 0x06, 0x06, 0x07, 0x00, 0x02, 0x00, 0xE1, 0x00,
  0x03, 0x00, 0x01, 0x09, 0x03, 0x06, 0x00, 0x05, 0x00, 0x07,
  0xFE, 0x03, 0xF7, 0xCF, 0x0B, 0x00, 0xFE, 0x00, 0x00, 0x01,
  0x27, 0x00, 0x01, 0x00, 0x00, 0x01, 0x06, 0x00, 0x03, 0x00,
  0x00, 0x00, 0x01, 0x00, 0x01, 0x06, 0xE7, 0x07, 0x00, 0xFD,
  0x00, 0x2A, 0x02, 0xFD, 0xFF, 0xF9, 0x0C, 0x02, 0x00, 0x00,
  0xFF, 0x33, 0x00, 0xFE, 0x0A, 0x29, 0x03, 0x01, 0x07, 0x00,
  0x24, 0x00, 0x00, 0x00, 0x00, 0x00, 0x01, 0x06, 0xFA, 0x09,
  0x00, 0xF7, 0x00, 0x0A, 0x03, 0xFF, 0xF9, 0xFD, 0x08, 0xE3,
  0xE2, 0x00, 0x00, 0x01, 0x00, 0x00, 0x04, 0x1C, 0x06, 0xFD,
  0x07, 0x01, 0x03, 0x00, 0x00, 0x00, 0x08, 0x01, 0xE1, 0xFE,
  0xFB, 0x0B, 0x00, 0xFD, 0x00, 0x09, 0x05, 0x02, 0x00, 0xE3,
  0x03, 0x05, 0xE4, 0x00, 0x00, 0x33, 0x00, 0x00, 0x02, 0x22,
  0x07, 0x05, 0x0C, 0x1B, 0x05, 0x00, 0x00, 0x00, 0x05, 0x00,
  0x03, 0x03, 0x04, 0x02, 0x00, 0xFB, 0xD6, 0x0F, 0xE2, 0x03,
  0xD4, 0x01, 0x08, 0x0A, 0x06, 0x00, 0x00, 0x25, 0x25, 0xDE,
  0x09, 0x1C, 0x36, 0x06, 0x2E, 0x1B, 0x34, 0x00, 0x00, 0x00,
  0x0C, 0x00, 0x01, 0x00, 0x05, 0x2C, 0x00, 0x11, 0x00, 0x06,
  0xFF, 0x07, 0x4A, 0x57, 0x0E, 0xFF, 0x00, 0x00, 0x00, 0x04,
  0x00, 0x00, 0x07, 0x00, 0x09, 0x3E, 0x03, 0x00, 0x0B, 0x22,
  0x00, 0x00, 0x0C, 0x01, 0xD7, 0xD8, 0x07, 0x3D, 0x00, 0x0E,
  0x00, 0x08, 0x01, 0x3C, 0x0E, 0x0E, 0x34, 0x03, 0x04, 0x00,
  0x00, 0x07, 0x00, 0x01, 0x06, 0x00, 0x56, 0x32, 0x0A, 0x00,
  0x3D, 0x1A, 0x00, 0x00, 0x46, 0x00, 0xCB, 0xD4, 0x0B, 0x3C,
  0x00, 0x0F, 0x00, 0x06, 0x06, 0x0B, 0x0A, 0x0A, 0x08, 0x09,
  0x0B, 0x00, 0x00, 0x01, 0x1E, 0x00, 0x2C, 0x00, 0x0B, 0x05,
  0x05, 0xE6, 0x0D, 0x1E, 0x00, 0x00, 0x47, 0x00, 0xE8, 0xDC,
  0x0D, 0x2E, 0x00, 0x37, 0x00, 0x09, 0x04, 0x05, 0x45, 0x37,
  0x07, 0x02, 0x07, 0x00, 0x00, 0x07, 0x00, 0x00, 0x06, 0x00,
  0x05, 0x44, 0x0A, 0x00, 0x07, 0x1F, 0x00, 0x00, 0x06, 0x00,
  0x02, 0xDA, 0x0A, 0x05, 0x00, 0x05, 0x00, 0x05, 0x06, 0x04,
  0x09, 0x0A, 0x34, 0x05, 0x07, 0x00, 0x23, 0x03, 0x00, 0xFF,
  0x04, 0x00, 0x07, 0x04, 0x08, 0x00, 0x03, 0x2E, 0x00, 0x1A,
  0x0C, 0x01, 0x04, 0xDD, 0x30, 0x0C, 0x00, 0x3B, 0x00, 0x03,
  0x05, 0x08, 0x0E, 0x04, 0x31, 0x08, 0x03, 0x00, 0x00, 0x03,
  0x00, 0x00, 0x07, 0x00, 0x0A, 0x08, 0x0D, 0x00, 0x06, 0x00,
  0x00, 0x00, 0x3F, 0x00, 0xE4, 0xE9, 0x2B, 0x35, 0x00, 0x09,
  0x00, 0x07, 0x01, 0x07, 0x0B, 0x09, 0x03, 0xFE, 0x02, 0x00,
  0x00, 0xEA, 0x00, 0x00, 0x08, 0x00, 0x08, 0x06, 0x07, 0x01,
  0x07, 0x20, 0x00, 0x00, 0x36, 0x00, 0xDD, 0x09, 0x08, 0x2F,
  0x00, 0x0B, 0xE5, 0x05, 0x02, 0x28, 0x07, 0x08, 0x07, 0x02,
  0x06, 0x00, 0x00, 0x02, 0x00, 0xFE, 0x07, 0x00, 0x0A, 0x06,
  0x08, 0x00, 0x05, 0x31, 0xE5, 0x00, 0x11, 0x03, 0xC3, 0x05,
  0x33, 0xFF, 0x00, 0x07, 0x00, 0x38, 0x03, 0x06, 0x41, 0x31,
  0x05, 0x02, 0x08, 0x00, 0x00, 0x03, 0x23, 0x01, 0x06, 0x00,
  0x06, 0x01, 0x06, 0xFF, 0x03, 0x21, 0x00, 0x00, 0x05, 0x00,
  0xCE, 0xE1, 0x0A, 0x36, 0x00, 0x06, 0x00, 0x07, 0x04, 0x01,
  0x34, 0x44, 0x03, 0x06, 0x02, 0x00, 0x1B, 0x05, 0x00, 0x01,
  0x05, 0x00, 0x0A, 0x06, 0x32, 0xFF, 0x0B, 0x00, 0x00, 0x00,
  0x07, 0x00, 0xE3, 0xE9, 0x09, 0x3D, 0x00, 0x05, 0x00, 0x03,
  0x06, 0x41, 0x39, 0x30, 0x08, 0x00, 0x04, 0x00, 0x00, 0x02,
  0x22, 0x00, 0x04, 0x00, 0x0A, 0x03, 0x07, 0xFF, 0x0C, 0x1A,
  0x00, 0x00, 0x42, 0xDE, 0xE7, 0xE0, 0x04, 0x49, 0x00, 0x07,
  0x00, 0x03, 0xFF, 0x3E, 0x04, 0x01, 0x0B, 0x05, 0xFF, 0x00,
  0x00, 0x03, 0x00, 0x03, 0x32, 0x00, 0x0E, 0x09, 0x01, 0x01,
  0x05, 0x00, 0x00, 0x00, 0x58, 0xE3, 0xCD, 0xD3, 0x05, 0x37,
  0x00, 0x02, 0x00, 0x05, 0x06, 0x34, 0x05, 0x06, 0x0C, 0x05,
  0xFF, 0x00, 0x00, 0x01, 0x00, 0xFF, 0x03, 0x00, 0x0F, 0x08,
  0x09, 0x00, 0x07, 0x1E, 0x00, 0x00, 0x4A, 0xDE, 0xE2, 0xED,
  0xFA, 0x49, 0x00, 0x03, 0xFF, 0x06, 0x06, 0x09, 0x0C, 0x0F,
  0x05, 0x04, 0x07, 0x00, 0x00, 0xFD, 0x00, 0x01, 0x02, 0x00,
  0x47, 0x03, 0x03, 0x01, 0x07, 0x00, 0x00, 0x00, 0x08, 0x00,
  0xD8, 0xE5, 0xFE, 0x01, 0x00, 0x07, 0x00, 0x08, 0x04, 0x07,
  0x0C, 0x09, 0x39, 0x05, 0x03, 0x00, 0x00, 0x00, 0xD9, 0x01,
  0x03, 0xE0, 0x08, 0x05, 0x09, 0xE6, 0x0B, 0x00, 0x00, 0x00,
  0x0E, 0x00, 0xC7, 0xD6, 0x30, 0x04, 0x00, 0x35, 0x00, 0xFE,
  0x05, 0x07, 0x0E, 0x05, 0x05, 0x06, 0x02, 0x00, 0x00, 0x01,
  0xD0, 0x01, 0x08, 0x00, 0x07, 0x31, 0x0A, 0x00, 0x01, 0xE4,
  0x00, 0x00, 0x0C, 0x01, 0xC1, 0xE7, 0x27, 0xFC, 0x00, 0x06,
  0x00, 0x08, 0xFF, 0x09, 0x08, 0xFE, 0x08, 0x01, 0x22, 0x00,
  0x02, 0xEA, 0x00, 0x00, 0x07, 0x00, 0x0A, 0x0A, 0x00, 0x00,
  0x08, 0x00, 0xE6, 0x00, 0x43, 0x00, 0x05, 0xE5, 0x31, 0x2A,
  0x00, 0x36, 0xD9, 0xFE, 0x03, 0x07, 0x04, 0x06, 0x03, 0x03,
  0x00, 0x00, 0x28, 0x07, 0x00, 0x01, 0x04, 0x00, 0x3A, 0x0A,
  0x03, 0x00, 0x07, 0x39, 0xE6, 0x00, 0x04, 0x00, 0xCE, 0x03,
  0x02, 0x02, 0x00, 0x06, 0x00, 0x05, 0x04, 0x05, 0x09, 0x03,
  0x03, 0x07, 0x07, 0x00, 0x00, 0x0A, 0x00, 0x02, 0x07, 0x00,
  0x0B, 0x06, 0x01, 0x00, 0x05, 0x00, 0x00, 0x00, 0x04, 0x00,
  0xB9, 0x01, 0xFC, 0x33, 0x00, 0x0D, 0x00, 0x05, 0xFE, 0x09,
  0x31, 0x03, 0x02, 0xFE, 0x01, 0x00, 0x00, 0x0C, 0x00, 0x01,
  0x06, 0x1A, 0x09, 0x03, 0x0D, 0x01, 0x0C, 0x27, 0x00, 0x00,
  0x06, 0xDE, 0xD6, 0xE0, 0x09, 0x08, 0x00, 0x06, 0x00, 0x04,
  0xFD, 0x43, 0x36, 0x2B, 0x05, 0xFF, 0x02, 0x00, 0x00, 0x06,
  0x00, 0x00, 0x04, 0x00, 0x03, 0x3E, 0x02, 0xFF, 0x09, 0x21,
  0x00, 0x00, 0x3E, 0x00, 0xD5, 0xD6, 0x25, 0x3C, 0x00, 0x06,
  0x00, 0x07, 0xFB, 0x03, 0x05, 0x3D, 0x04, 0xFD, 0x03, 0x00,
  0x00, 0x04, 0x00, 0x00, 0x3C, 0x00, 0x0B, 0x34, 0x06, 0xFF,
  0x10, 0x23, 0x01, 0x00, 0x35, 0xE3, 0xBA, 0xD0, 0x07, 0x01,
  0x00, 0x08, 0x00, 0x08, 0xFF, 0x0B, 0x37, 0x03, 0x06, 0x00,
  0xFF, 0x00, 0x00, 0x01, 0x00, 0x00, 0x02, 0x00, 0x08, 0x08,
  0x06, 0x00, 0x05, 0x1A, 0x00, 0x00, 0x3B, 0xE3, 0xDA, 0xE0,
  0x0C, 0x09, 0x00, 0x01, 0x00, 0x04, 0x01, 0x07, 0x3D, 0x2A,
  0x05, 0xFD, 0xFF, 0x00, 0x00, 0xFF, 0x00, 0x00, 0x05, 0x00,
  0x0C, 0x02, 0x06, 0x01, 0x06, 0x3A, 0x01, 0x00, 0x07, 0x01,
  0xC8, 0xEB, 0x03, 0x03, 0x00, 0x3D, 0x00, 0x04, 0xFE, 0x03,
  0x03, 0x04, 0x0B, 0x00, 0xFE, 0x00, 0x00, 0x00, 0x00, 0x00,
  0x06, 0xD9, 0x0C, 0x04, 0x0E, 0x00, 0x12, 0x1D, 0x00, 0x00,
  0x43, 0x01, 0xC9, 0xE1, 0x01, 0x3B, 0x00, 0x0A, 0x00, 0x2C,
  0xFC, 0x09, 0x0A, 0xFE, 0x34, 0xFC, 0x20, 0x00, 0x00, 0x06,
  0x00, 0xFF, 0x07, 0xE4, 0x0A, 0x41, 0x03, 0x01, 0x08, 0x00,
  0x00, 0x00, 0x08, 0x00, 0xDF, 0xE3, 0x04, 0x01, 0x00, 0x07,
  0x00, 0x3F, 0x00, 0x08, 0x07, 0x01, 0x05, 0xFE, 0x27, 0x00,
  0x00, 0xFC, 0x22, 0x00, 0x09, 0x00, 0x0D, 0x05, 0xFD, 0x01,
  0x07, 0x00, 0x00, 0x00, 0x0F, 0x00, 0x05, 0x03, 0x3E, 0x2A,
  0x00, 0x36, 0xD3, 0x05, 0xF9, 0x04, 0x05, 0x2C, 0x0E, 0xFB,
  0x05, 0x00, 0x00, 0x07, 0x00, 0x00, 0x2F, 0x00, 0x0A, 0x23,
  0x0B, 0x01, 0x35, 0x31, 0x00, 0x00, 0x0E, 0x00, 0xDE, 0xEE,
  0x28, 0xFE, 0x00, 0xFE, 0xDC, 0x00, 0x1B, 0x2D, 0x04, 0x28,
  0x08, 0xFF, 0x03, 0x00, 0x00, 0x01, 0x1B, 0x00, 0x02, 0x00,
  0x0A, 0x28, 0xFD, 0x00, 0x0F, 0x00, 0x00, 0x00, 0x0E, 0x00,
  0xE8, 0x02, 0xFF, 0x31, 0x00, 0x08, 0x00, 0x05, 0xFD, 0x22,
  0x07, 0x33, 0x0C, 0xFC, 0xFF, 0x00, 0x00, 0x29, 0x00, 0x00,
  0xFD, 0x00, 0x05, 0x29, 0x01, 0x01, 0x08, 0x00, 0x00, 0x00,
  0x0C, 0xE5, 0xDD, 0xEB, 0xFD, 0x0A, 0x00, 0x08, 0x00, 0x05,
  0x01, 0x27, 0x0C, 0x39, 0x0A, 0xFF, 0xFC, 0x00, 0x00, 0x0A,
  0x00, 0x01, 0x04, 0x00, 0x08, 0x32, 0x02, 0x01, 0x09, 0x00,
  0x00, 0x00, 0x40, 0xD6, 0xE3, 0xD6, 0x04, 0x38, 0x00, 0x07,
  0x00, 0x0A, 0xFF, 0x36, 0x0A, 0x39, 0x07, 0x01, 0x00, 0x00,
  0x00, 0x00, 0x00, 0x00, 0x0A, 0x00, 0x08, 0x31, 0x01, 0x00,
  0x44, 0x36, 0x01, 0x00, 0x42, 0xDC, 0xDF, 0xCD, 0x02, 0x37,
  0x00, 0x03, 0x00, 0x04, 0xFB, 0x37, 0x2D, 0x09, 0x09, 0xF7,
  0xFE, 0x00, 0x00, 0x04, 0x00, 0x01, 0x07, 0x00, 0x4A, 0x09,
  0x07, 0x01, 0x09, 0x1F, 0x00, 0x00, 0x0D, 0xD2, 0xD2, 0xFF,
  0xFA, 0x35, 0x00, 0x04, 0x00, 0x06, 0xFE, 0x33, 0x38, 0xFD,
  0x06, 0xFE, 0x25, 0x00, 0x00, 0x08, 0x00, 0x01, 0x09, 0x00,
  0x0D, 0x44, 0x04, 0x01, 0x0C, 0x35, 0x00, 0x00, 0x0E, 0x00,
  0xDF, 0xFB, 0x03, 0x04, 0x00, 0x0B, 0x00, 0x00, 0xFD, 0x09,
  0x09, 0x08, 0x09, 0xFE, 0xFB, 0x00, 0x00, 0x09, 0xDB, 0x00,
  0x02, 0xDB, 0x05, 0x03, 0x0B, 0x00, 0x0A, 0x00, 0x00, 0x00,
  0x49, 0x00, 0xC0, 0xFA, 0x01, 0x09, 0x00, 0x06, 0x00, 0x01,
  0xFB, 0x04, 0x0E, 0x38, 0x2F, 0xFD, 0x01, 0x00, 0x00, 0x04,
  0x00, 0x00, 0x08, 0xD7, 0x06, 0x3B, 0x0B, 0x00, 0x0B, 0x00,
  0x00, 0x00, 0x0F, 0x00, 0xDC, 0xDE, 0x0A, 0xFE, 0x00, 0x07,
  0x00, 0x0B, 0x01, 0x03, 0x08, 0x41, 0x0C, 0xFD, 0x01, 0x00,
  0x01, 0x04, 0x00, 0x00, 0x01, 0xE6, 0x0A, 0x03, 0x07, 0x01,
  0x0B, 0x00, 0x00, 0xE5, 0x10, 0x00, 0xD5, 0xF2, 0x08, 0x24,
  0x00, 0x3B, 0x00, 0x05, 0xFE, 0x04, 0x08, 0x50, 0x03, 0xFC,
  0x31, 0x00, 0x1C, 0x01, 0x00, 0x01, 0x01, 0x00, 0x0B, 0x00,
  0x07, 0x00, 0x04, 0x00, 0x00, 0xE5, 0x39, 0x00, 0xDD, 0xF2,
  0x04, 0xFE, 0x00, 0x03, 0xDF, 0x05, 0x02, 0x01, 0x06, 0x58,
  0x02, 0x04, 0xFF, 0x00, 0x00, 0xFC, 0x00, 0x00, 0x05, 0x00,
  0x30, 0x27, 0x06, 0x02, 0x03, 0x00, 0x00, 0x00, 0x05, 0xFF,
  0xCE, 0xF2, 0x02, 0x2F, 0x00, 0x09, 0xE5, 0xFD, 0xFB, 0x01,
  0x07, 0x0C, 0x0A, 0xFD, 0x01, 0x00, 0x1F, 0x04, 0x00, 0xFF,
  0x01, 0x00, 0x06, 0x05, 0x0A, 0x00, 0x07, 0x25, 0x01, 0x00,
  0x08, 0xE2, 0xC0, 0x03, 0x34, 0x03, 0x00, 0x06, 0x00, 0x00,
  0xFE, 0x2B, 0x2E, 0x31, 0x04, 0xFD, 0x01, 0x00, 0x00, 0x01,
  0x00, 0x01, 0x05, 0x00, 0x36, 0x4C, 0x01, 0xFE, 0xFE, 0x20,
  0x00, 0x00, 0x09, 0xDC, 0xDF, 0xDD, 0x29, 0x3F, 0x00, 0x07,
  0x00, 0x03, 0x08, 0x06, 0x09, 0x11, 0x09, 0xFE, 0xFF, 0x00,
  0x1E, 0xFE, 0x00, 0x00, 0x03, 0x20, 0x0E, 0x39, 0xFE, 0x00,
  0x13, 0x2F, 0x00, 0x00, 0x40, 0x00, 0xCE, 0xE8, 0x03, 0x2C,
  0x00, 0x10, 0x00, 0x03, 0xFF, 0x2E, 0x11, 0x51, 0xFF, 0x01,
  0x04, 0x00, 0x1E, 0x00, 0x1C, 0x01, 0x05, 0xDD, 0x3D, 0x2C,
  0x0B, 0x01, 0x0C, 0x00, 0x00, 0x00, 0x3E, 0x01, 0xCF, 0x01,
  0x01, 0xFF, 0x00, 0x0A, 0x00, 0x05, 0x00, 0x3B, 0x0E, 0x3E,
  0x04, 0xFD, 0xFE, 0x00, 0x00, 0x06, 0x00, 0x03, 0x07, 0x00,
  0x02, 0x2E, 0x00, 0x01, 0x09, 0x30, 0x00, 0x00, 0x30, 0xFF,
  0xDD, 0x06, 0x06, 0x04, 0x00, 0x11, 0x00, 0x04, 0xFD, 0x37,
  0x0D, 0x0E, 0x3C, 0xFF, 0x00, 0x00, 0x00, 0xFB, 0x00, 0x20,
  0x04, 0x00, 0x06, 0x02, 0x08, 0x01, 0x0B, 0x22, 0x00, 0x00,
  0x11, 0x00, 0xC5, 0xFE, 0x02, 0x51, 0x00, 0x0F, 0x00, 0x05,
  0x02, 0x07, 0x11, 0x4B, 0x11, 0x08, 0xFE, 0x00, 0x00, 0x04,
  0x00, 0x01, 0x09, 0xE2, 0x0D, 0x04, 0x08, 0x00, 0x0E, 0x00,
  0x00, 0x00, 0x44, 0x00, 0xBF, 0x03, 0x3A, 0x03, 0x00, 0x08,
  0x00, 0x09, 0x04, 0x05, 0x06, 0x44, 0x06, 0x05, 0x05, 0x00,
  0x00, 0x01, 0x00, 0x01, 0x08, 0x00, 0x09, 0x06, 0x07, 0x01,
  0x0B, 0x00, 0x00, 0x00, 0x0C, 0x00, 0xE4, 0x04, 0x47, 0x2F,
  0x00, 0x04, 0xC9, 0x06, 0x03, 0x0B, 0x09, 0x59, 0x03, 0x05,
  0x0B, 0x00, 0xFF, 0x03, 0x00, 0xE0, 0x0B, 0x00, 0x0E, 0x47,
  0x0A, 0x00, 0x08, 0x21, 0xDF, 0x00, 0x0B, 0x00, 0xDE, 0xE5,
  0x0B, 0x1D, 0x00, 0x35, 0x00, 0x00, 0x05, 0x04, 0x08, 0x06,
  0x04, 0x03, 0x06, 0x00, 0x00, 0xFE, 0x00, 0x00, 0x02, 0xD3,
  0x04, 0x02, 0x07, 0x00, 0x06, 0x00, 0x00, 0x00, 0x07, 0x00,
  0xBE, 0xEA, 0x08, 0x00, 0x00, 0x2E, 0x00, 0xFF, 0x05, 0xFF,
  0x06, 0x05, 0x02, 0x08, 0x03, 0x00, 0x00, 0x02, 0xDF, 0x00,
  0x02, 0x00, 0x02, 0xFF, 0x00, 0x01, 0x00, 0x00, 0xE5, 0x00,
  0x04, 0x00, 0xC9, 0xFB, 0x07, 0x2A, 0x00, 0x03, 0x00, 0x01,
  0x06, 0x02, 0x06, 0x42, 0x02, 0x03, 0x0A, 0x00, 0x00, 0xDB,
  0x1B, 0x01, 0xFF, 0xD7, 0x02, 0x01, 0x06, 0x00, 0x02, 0xDF,
  0x00, 0x00, 0x05, 0x00, 0xD6, 0x03, 0x06, 0x00, 0x00, 0x2D,
  0x00, 0x02, 0x02, 0x03, 0x07, 0x05, 0x03, 0xFF, 0x31, 0x00,
  0x00, 0x00, 0x20, 0x00, 0x03, 0xCE, 0xFB, 0x05, 0x04, 0x00,
  0xFD, 0xD0, 0x00, 0x00, 0x07, 0x00, 0xD0, 0x02, 0x0B, 0x05,
  0x00, 0x2A, 0x00, 0x00, 0x03, 0x03, 0x08, 0x04, 0x02, 0x03,
  0x0B, 0x00, 0x00, 0xC9, 0xDD, 0x00, 0x01, 0xC8, 0xFF, 0x03,
  0x06, 0x00, 0x00, 0x00, 0x00, 0x00, 0x09, 0x00, 0xDE, 0xE7,
  0x35, 0x05, 0x00, 0x30, 0x00, 0x03, 0x05, 0x03, 0x04, 0x07,
  0xFF, 0x03, 0x08, 0x00, 0x00, 0x00, 0x00, 0x00, 0x04, 0xD1,
  0x01, 0x05, 0x03, 0x00, 0x03, 0xBA, 0x00, 0x00, 0x04, 0x00,
  0xD4, 0x00, 0x0A, 0x05, 0x00, 0x06, 0x00, 0x02, 0x07, 0x06,
  0x05, 0x01, 0x02, 0x02, 0x06, 0x00, 0x00, 0xD6, 0x00, 0x00,
  0x04, 0xE5, 0x04, 0x05, 0x01, 0x00, 0x05, 0x00, 0x00, 0x00,
  0x00, 0x00, 0xD5, 0xFE, 0x09, 0x15, 0x00, 0x0A, 0x00, 0x01,
  0x04, 0x05, 0x08, 0x08, 0xFF, 0x04, 0x03, 0x00, 0x00, 0xFC,
  0x00, 0xFF, 0x04, 0xD1, 0x07, 0x01, 0x03, 0x00, 0x02, 0x00,
  0x00, 0x00, 0xFE, 0x02, 0xD4, 0xDF, 0x0A, 0x04, 0x00, 0x0B,
  0x00, 0x00, 0x37, 0x03, 0x0C, 0x03, 0xFF, 0x00, 0x29, 0x00,
  0x00, 0xDE, 0x00, 0xFF, 0xFF, 0xD7, 0x03, 0x01, 0x09, 0x00,
  0x01, 0xD2, 0x00, 0x00, 0x1F, 0x00, 0xCC, 0xE4, 0x08, 0x28,
  0x00, 0x05, 0x00, 0x02, 0xFA, 0x00, 0x07, 0x05, 0x05, 0xFE,
  0x03, 0x00, 0x00, 0xD5, 0x00, 0xFE, 0xFF, 0xC2, 0x01, 0x00,
  0x04, 0x00, 0x02, 0xE4, 0x00, 0x00, 0x01, 0x00, 0xD3, 0xE7,
  0x2E, 0x1C, 0x00, 0x29, 0x00, 0xFF, 0xFF, 0xFF, 0x03, 0x07,
  0x02, 0xFE, 0x2E, 0x00, 0x00, 0x00, 0x00, 0xFE, 0xFF, 0xC8,
  0x02, 0xFF, 0xFF, 0x00, 0x03, 0xE3, 0x00, 0x00, 0x02, 0x00,
  0xD9, 0xF0, 0x02, 0x26, 0x00, 0x03, 0x00, 0x01, 0xFC, 0x01,
  0x07, 0x02, 0x00, 0xFD, 0x04, 0x00, 0x00, 0xFC, 0x00, 0x01,
  0x02, 0xCB, 0x02, 0x01, 0x19, 0x00, 0x02, 0xE2, 0x00, 0x00,
  0x2B, 0x00, 0xC3, 0xE7, 0x40, 0x00, 0x00, 0x00, 0x00, 0x01,
  0x02, 0x01, 0x03, 0x04, 0xFE, 0x01, 0x37, 0x00, 0x00, 0x02,
  0x00, 0x00, 0x02, 0x00, 0xED, 0x04, 0x08, 0x00, 0x03, 0xE2,
  0x00, 0x00, 0x23, 0x01, 0xD8, 0x04, 0x09, 0x1F, 0x00, 0xFE,
  0x00, 0x00, 0x01, 0x03, 0x07, 0x02, 0x00, 0xFE, 0x2F, 0x00,
  0x22, 0xFE, 0x00, 0x00, 0x04, 0x00, 0xED, 0x00, 0x02, 0x00,
  0x02, 0xD6, 0x00, 0x00, 0x03, 0x00, 0xD7, 0x00, 0x07, 0x22,
  0x00, 0x03, 0x00, 0x00, 0x01, 0xFD, 0x04, 0x03, 0x04, 0xFE,
  0x00, 0x00, 0x00, 0xD9, 0x00, 0xFF, 0x02, 0xD2, 0xED, 0x00,
  0x02, 0x00, 0x05, 0x00, 0x00, 0x00, 0x05, 0x00, 0xFF, 0xFF,
  0x31, 0xFE, 0x00, 0x29, 0x00, 0x06, 0x20, 0x00, 0x05, 0x00,
  0x00, 0xFF, 0x22, 0x00, 0x00, 0xC9, 0x00, 0xFE, 0xFF, 0xD8,
  0xEA, 0x00, 0xFF, 0x00, 0x03, 0xD0, 0x00, 0x00, 0x2B, 0x00,
  0xCF, 0xFF, 0x07, 0xFC, 0x00, 0xFE, 0x00, 0xFE, 0xFD, 0x01,
  0x04, 0xFF, 0xFF, 0xFF, 0x2F, 0x00, 0x00, 0xFD, 0x00, 0x00,
  0x01, 0xDD, 0xE1, 0x00, 0xFF, 0x00, 0xFE, 0xC6, 0x00, 0xE4,
  0x00, 0x00, 0xCC, 0x02, 0x38, 0x05, 0x00, 0x02, 0x00, 0xFE,
  0xFD, 0x02, 0xFC, 0x06, 0x00, 0xFF, 0x25, 0x00, 0x00, 0xFF,
  0x00, 0x02, 0x02, 0xCD, 0xFE, 0xFE, 0x01, 0x00, 0x00, 0x00,
  0x00, 0x00, 0x02, 0x00, 0xB7, 0xE1, 0x09, 0x04, 0x00, 0xFF,
  0x00, 0x01, 0x00, 0x04, 0xFD, 0xFA, 0xFD, 0x01, 0xFF, 0x00,
  0x1B, 0x02, 0x00, 0x00, 0xFE, 0xC0, 0x03, 0x00, 0xFD, 0x00,
  0xE9, 0xE0, 0x00, 0x00, 0x06, 0x00, 0xC0, 0xFA, 0x05, 0x30,
  0x00, 0x02, 0x00, 0x00, 0x01, 0x00, 0x00, 0x00, 0x03, 0x01,
  0x27, 0x00, 0x00, 0xD2, 0x00, 0x00, 0x04, 0xAC, 0xCF, 0x05,
  0x04, 0x00, 0x01, 0xCF, 0x00, 0x00, 0x06, 0x00, 0xC6, 0xCD,
  0x2C, 0x08, 0x00, 0xFF, 0x00, 0xFF, 0x00, 0x01, 0x00, 0xFF,
  0x06, 0x01, 0x2A, 0x00, 0x00, 0xFD, 0x00, 0x00, 0xFE, 0xCB,
  0x07, 0x00, 0x01, 0x00, 0x02, 0xD1, 0x00, 0x00, 0x03, 0x00,
  0xD9, 0xFD, 0x2C, 0x00, 0x00, 0xFE, 0x00, 0x00, 0x00, 0x00,
  0x02, 0x02, 0x02, 0x03, 0x19, 0x00, 0x00, 0x03, 0xE1, 0x01,
  0xFC, 0x00, 0x03, 0xFC, 0x05, 0xE5, 0xFE, 0xE2, 0x00, 0xE3,
  0x03, 0x00, 0xCC, 0xDD, 0x37, 0x29, 0x00, 0x04, 0x00, 0x04,
  0xFE, 0xFD, 0x00, 0x38, 0x04, 0x00, 0x00, 0x00, 0x00, 0xFE,
  0x00, 0x00, 0xFC, 0x00, 0x02, 0x00, 0x27, 0x01, 0x06, 0xE3,
  0x00, 0x00, 0x05, 0x00, 0xB4, 0xFC, 0x08, 0x03, 0x00, 0x2C,
  0x00, 0x01, 0xFF, 0xFE, 0x29, 0x41, 0x04, 0xFD, 0x2B, 0x00,
  0x00, 0xDD, 0x00, 0x00, 0xFD, 0x00, 0x06, 0xFE, 0x00, 0x00,
  0xFC, 0xDB, 0x00, 0x00, 0x02, 0x00, 0xD1, 0xFD, 0x02, 0x04,
  0x00, 0x00, 0x00, 0xFF, 0x03, 0xFF, 0x00, 0x25, 0x05, 0xFF,
  0x03, 0x00, 0x00, 0xDE, 0x00, 0x00, 0xFD, 0xC5, 0x03, 0x01,
  0x07, 0x00, 0x01, 0x00, 0x00, 0x00, 0x02, 0x00, 0xDE, 0x02,
  0x26, 0xFE, 0x00, 0xFB, 0x00, 0xFF, 0xFF, 0x04, 0x02, 0xFF,
  0x00, 0x00, 0x2A, 0x00, 0x00, 0xEA, 0x00, 0x00, 0x00, 0xD5,
  0xFF, 0x03, 0x01, 0x00, 0x02, 0xD6, 0x00, 0x00, 0xFF, 0x00,
  0xCE, 0x02, 0xFF, 0x05, 0x00, 0x03, 0x00, 0xFF, 0xFE, 0x00,
  0x05, 0x06, 0x00, 0x02, 0x21, 0x00, 0x00, 0xDF, 0x00, 0x00,
  0xFD, 0xD5, 0xE3, 0x00, 0x02, 0x00, 0xFF, 0xE1, 0x00, 0xDC,
  0x00, 0x00, 0xC3, 0xE9, 0x04, 0x01, 0x00, 0x27, 0x00, 0x00,
  0xFF, 0xFE, 0xFB, 0x01, 0x04, 0x00, 0x2C, 0x00, 0xFE, 0x09,
  0xD7, 0x00, 0x01, 0xD2, 0xFE, 0x02, 0x01, 0x00, 0x19, 0x00,
  0x00, 0x00, 0x00, 0x00, 0xBD, 0xE6, 0x30, 0x20, 0x00, 0xFD,
  0x00, 0x02, 0xFE, 0xFF, 0x00, 0x05, 0x02, 0xFC, 0x01, 0x00,
  0x00, 0xDE, 0x00, 0x00, 0xFF, 0xC7, 0x01, 0x00, 0xFF, 0x00,
  0xFD, 0xC8, 0x00, 0x00, 0xFE, 0xFF, 0xBE, 0xFD, 0x03, 0x02,
  0x00, 0xFF, 0x00, 0x00, 0x02, 0xFF, 0x02, 0xFF, 0x06, 0xFF,
  0x1E, 0x00, 0x00, 0xDC, 0x00, 0xFE, 0xFF, 0xC8, 0x05, 0x02,
  0xFE, 0x00, 0x02, 0xCF, 0x00, 0x00, 0x0A, 0x00, 0xAE, 0xD3,
  0xFA, 0x01, 0x00, 0x01, 0x00, 0xFE, 0x06, 0x02, 0x08, 0x33,
  0x00, 0x01, 0x21, 0x00, 0x00, 0xD5, 0x00, 0x02, 0x01, 0xCD,
  0x01, 0xE3, 0xFE, 0x00, 0x06, 0xDA, 0x00, 0x00, 0x0A, 0x00,
  0xB7, 0xE2, 0x26, 0x1D, 0x00, 0x2A, 0x00, 0x01, 0x08, 0x00,
  0x2D, 0x2A, 0x01, 0x07, 0x13, 0x00, 0x00, 0xD1, 0xD7, 0x00,
  0x00, 0xDF, 0x03, 0x01, 0xFD, 0x00, 0x01, 0xC7, 0x00, 0x00,
  0x04, 0x00, 0xBB, 0xFB, 0x03, 0x22, 0x00, 0x27, 0x00, 0x01,
  0x37, 0x02, 0x08, 0x3B, 0x00, 0xFE, 0xFF, 0x00, 0x00, 0x03,
  0x00, 0x00, 0x00, 0xE0, 0xFE, 0x00, 0x00, 0x00, 0x03, 0xDB,
  0x00, 0x00, 0x03, 0x00, 0xAE, 0x05, 0x06, 0x1E, 0x00, 0x02,
  0x00, 0xFF, 0x04, 0xFE, 0x31, 0x04, 0xFF, 0x04, 0x01, 0x00,
  0x00, 0xFE, 0x00, 0x00, 0x01, 0xD8, 0x03, 0x04, 0x02, 0x00,
  0x01, 0xD5, 0x00, 0x00, 0x01, 0x00, 0xB2, 0xFF, 0x08, 0x02,
  0x00, 0x32, 0x00, 0xFF, 0x04, 0x00, 0x02, 0x3B, 0xFF, 0x03,
  0x04, 0x00, 0x00, 0x04, 0x00, 0x00, 0xFE, 0xA5, 0x00, 0x02,
  0x02, 0x00, 0x02, 0xD7, 0x00, 0x00, 0x06, 0x00, 0xC7, 0xE7,
  0x0E, 0x08, 0x00, 0x01, 0x00, 0xFE, 0x02, 0x00, 0x04, 0x33,
  0x00, 0x04, 0x28, 0x00, 0x00, 0x02, 0xE0, 0x00, 0x04, 0xA7,
  0xFF, 0x04, 0x03, 0x00, 0x00, 0xC1, 0x00, 0x00, 0x04, 0x00,
  0xAF, 0xE1, 0x0A, 0x01, 0x00, 0x05, 0x00, 0x00, 0xFB, 0x02,
  0x04, 0x06, 0xFF, 0xFF, 0x28, 0x00, 0x00, 0xF1, 0x00, 0x00,
  0x00, 0xCE, 0x03, 0x02, 0x03, 0x00, 0x08, 0xDA, 0x00, 0xE0,
  0x05, 0x00, 0xB8, 0xFF, 0x05, 0x05, 0x00, 0x00, 0xE3, 0x01,
  0xFD, 0xFF, 0x21, 0xFF, 0x06, 0xFF, 0x1B, 0x00, 0x00, 0x04,
  0x00, 0x00, 0x00, 0xE3, 0xFB, 0x00, 0x04, 0x00, 0xFE, 0x00,
  0x00, 0x00, 0xFF, 0x00, 0xC2, 0xE0, 0x2E, 0x03, 0x00, 0xFF,
  0x00, 0x02, 0x00, 0x00, 0x02, 0x27, 0x04, 0x23, 0x20, 0x00,
  0xFF, 0xEF, 0x00, 0x00, 0x00, 0xE4, 0x0A, 0xFE, 0xFF, 0xFF,
  0x06, 0xE0, 0xFF, 0x00, 0x08, 0xFF, 0xCD, 0xD8, 0x05, 0x02,
  0x00, 0x02, 0x00, 0x01, 0x01, 0xFE, 0x06, 0x02, 0x06, 0xFA,
  0x22, 0x00, 0x00, 0xE2, 0x00, 0x00, 0xFE, 0xCE, 0x04, 0x01,
  0x04, 0x00, 0x08, 0xCD, 0x00, 0x00, 0x06, 0x00, 0xBC, 0xFC,
  0x06, 0xFC, 0x00, 0x00, 0x00, 0xFE, 0xFF, 0xFE, 0xFF, 0x2D,
  0x02, 0x01, 0x29, 0x00, 0x00, 0x00, 0x00, 0x01, 0x00, 0xC6,
  0xFE, 0x01, 0x01, 0x00, 0xFE, 0xD2, 0x00, 0x00, 0x01, 0x00,
  0xC0, 0x00, 0x2F, 0x03, 0x00, 0x2D, 0x00, 0xFF, 0x04, 0x01,
  0x03, 0x04, 0xFF, 0x09, 0x05, 0x00, 0x00, 0xFE, 0x00, 0x00,
  0xFF, 0x00, 0x03, 0xFC, 0xFA, 0x00, 0x0A, 0x00, 0x00, 0x00,
  0x04, 0x00, 0xBC, 0xFE, 0x04, 0x27, 0x00, 0x02, 0x00, 0x03,
  0x36, 0x00, 0x02, 0x2A, 0xFF, 0x08, 0x02, 0x00, 0x00, 0xE1,
  0x00, 0x01, 0xFF, 0xBE, 0x02, 0x02, 0x01, 0x00, 0x01, 0xD5,
  0x00, 0x00, 0x01, 0x00, 0xC6, 0x00, 0x05, 0x02, 0x00, 0x01,
  0x00, 0xFF, 0x2D, 0x03, 0x04, 0x34, 0x00, 0x03, 0x04, 0x00,
  0x00, 0x00, 0x00, 0x1E, 0x07, 0xDE, 0x00, 0x07, 0x26, 0x00,
  0x04, 0x00, 0x00, 0x00, 0x04, 0x00, 0xC0, 0x01, 0x02, 0x02,
  0x00, 0x05, 0x00, 0xFE, 0x05, 0x04, 0x03, 0x45, 0x02, 0x02,
  0xFF, 0x00, 0x00, 0x00, 0x00, 0x00, 0x01, 0xC0, 0x01, 0x04,
  0xFC, 0x00, 0x08, 0x00, 0x00, 0x00, 0x06, 0x00, 0xCD, 0x00,
  0x00, 0x08, 0x00, 0x06, 0x00, 0x02, 0x35, 0x01, 0x0B, 0x57,
  0x00, 0x05, 0x20, 0x00, 0x00, 0xD7, 0x00, 0x1E, 0xFF, 0xAA,
  0x07, 0x02, 0xFF, 0x00, 0x05, 0xB9, 0x00, 0x00, 0x05, 0x00,
  0xC0, 0xFE, 0x06, 0x03, 0x00, 0x02, 0x00, 0x05, 0x00, 0x01,
  0x06, 0x45, 0x03, 0x03, 0x20, 0x00, 0x00, 0x00, 0x00, 0x02,
  0x00, 0xCD, 0x01, 0xFF, 0x02, 0x00, 0xF0, 0xD8, 0xE3, 0x00,
  0x01, 0x00, 0xBF, 0xFE, 0x3B, 0x2C, 0x00, 0x02, 0xE5, 0xFE,
  0x02, 0x04, 0x43, 0x58, 0xFE, 0x02, 0x04, 0x00, 0x00, 0xE2,
  0x00, 0x00, 0x03, 0x00, 0xFD, 0xFF, 0x07, 0x00, 0x00, 0x00,
  0x00, 0x00, 0x1D, 0x00, 0xB4, 0xC9, 0x08, 0x32, 0x00, 0x0C,
  0xE6, 0xFF, 0x05, 0x48, 0x44, 0x5C, 0x08, 0x05, 0xFF, 0x00,
  0x20, 0x05, 0x00, 0x01, 0x06, 0x00, 0x05, 0x35, 0x02, 0x00,
  0x04, 0x00, 0x00, 0x00, 0x0B, 0x00, 0xC4, 0xEF, 0x04, 0x05,
  0x00, 0x00, 0xFF, 0x04, 0x04, 0x36, 0x07, 0x41, 0x08, 0x01,
  0x00, 0x00, 0x00, 0x01, 0x00, 0x01, 0x06, 0x00, 0x4C, 0x08,
  0x04, 0x01, 0x0A, 0x00, 0x00, 0x00, 0x35, 0x00, 0xC5, 0xD3,
  0x06, 0x02, 0x00, 0x0C, 0x00, 0x03, 0x07, 0x31, 0x04, 0x36,
  0x08, 0x08, 0x03, 0x00, 0x00, 0x00, 0x24, 0x01, 0x02, 0x00,
  0x0B, 0x07, 0x3B, 0x01, 0x0F, 0x00, 0x00, 0x00, 0x0C, 0x00,
  0xDB, 0xE8, 0x03, 0x02, 0x00, 0x04, 0x00, 0x09, 0x02, 0x08,
  0x0B, 0x42, 0x0D, 0x04, 0x1E, 0x00, 0x00, 0x03, 0x00, 0x00,
  0x03, 0x00, 0x0B, 0x04, 0x03, 0xFF, 0x03, 0x28, 0x00, 0x00,
  0x05, 0x00, 0xE6, 0xFE, 0x04, 0x39, 0x00, 0x0C, 0x00, 0x02,
  0x00, 0x04, 0x33, 0x06, 0x34, 0x01, 0x00, 0x00, 0x3C, 0x00,
  0xE2, 0x00, 0x04, 0x00, 0x03, 0x09, 0x04, 0x01, 0x06, 0x00,
  0x00, 0x00, 0x08, 0x00, 0xE5, 0xFD, 0x02, 0xFF, 0x00, 0x10,
  0x00, 0xFE, 0xFE, 0x36, 0x0A, 0x2E, 0x0B, 0xFC, 0xFE, 0x00,
  0x00, 0x04, 0xDB, 0xFF, 0x0A, 0x00, 0x0D, 0x09, 0x03, 0x00,
  0x0A, 0x00, 0x00, 0x00, 0x0A, 0xFF, 0xD1, 0x02, 0xFF, 0x05,
  0x00, 0x06, 0x00, 0x06, 0xFE, 0x34, 0x0C, 0x06, 0x09, 0xFA,
  0xFF, 0x00, 0x00, 0xF9, 0x00, 0x01, 0x06, 0x00, 0x0B, 0x04,
  0x01, 0x01, 0x01, 0x00, 0x00, 0x00, 0x0F, 0x00, 0xDC, 0xFD,
  0xFF, 0xFB, 0x00, 0x0A, 0x00, 0x03, 0x05, 0x05, 0x39, 0x43,
  0x08, 0x01, 0xFF, 0x00, 0x00, 0xFC, 0x00, 0x00, 0x03, 0x00,
  0x12, 0x03, 0x08, 0x01, 0x0E, 0x00, 0x00, 0x00, 0x12, 0x00,
  0xD5, 0xDF, 0x27, 0x04, 0x00, 0x0E, 0x00, 0x00, 0xFF, 0x32,
  0x08, 0x06, 0x06, 0x00, 0x00, 0x00, 0x00, 0x04, 0x00, 0x00,
  0x02, 0x00, 0x04, 0x28, 0x05, 0xFF, 0x01, 0x00, 0x00, 0x00,
  0x03, 0x00, 0xD3, 0x04, 0x04, 0x04, 0x00, 0x0B, 0x00, 0x01,
  0x03, 0x06, 0x08, 0x3E, 0x05, 0x01, 0xFD, 0x00, 0x00, 0xFF,
  0xD7, 0xFE, 0x03, 0x00, 0x05, 0x2F, 0xFF, 0xFE, 0x08, 0x1B,
  0x00, 0x00, 0x06, 0x00, 0xD3, 0x00, 0x00, 0x03, 0x00, 0x09,
  0x00, 0xFE, 0x01, 0x32, 0x0B, 0x38, 0x04, 0x01, 0xFC, 0x00,
  0x00, 0x04, 0x00, 0xFF, 0x04, 0x00, 0x01, 0x03, 0x03, 0xFF,
  0x07, 0x00, 0x00, 0x00, 0x05, 0x00, 0xCD, 0x00, 0xFD, 0x05,
  0x00, 0x0D, 0x00, 0x04, 0x02, 0x40, 0x0A, 0x33, 0xFC, 0xFE,
  0x00, 0x00, 0x00, 0x01, 0x00, 0x02, 0x02, 0x00, 0x0F, 0x08,
  0xFF, 0x02, 0x0A, 0x00, 0x00, 0x00, 0x0B, 0x00, 0xB7, 0xE1,
  0x03, 0x00, 0x00, 0x04, 0x00, 0x02, 0x04, 0x05, 0x0D, 0x3B,
  0x0A, 0x04, 0x00, 0x00, 0x00, 0xFC, 0x00, 0xFF, 0xFE, 0x00,
  0x06, 0x03, 0x03, 0x01, 0x07, 0x00, 0x00, 0x00, 0x32, 0xFF,
  0xCD, 0xE4, 0xF6, 0xFD, 0x00, 0x05, 0xE0, 0x01, 0x06, 0x01,
  0x07, 0x48, 0x05, 0x05, 0xFD, 0x00, 0x00, 0xFD, 0x00, 0x01,
  0xFC, 0x00, 0x01, 0x00, 0xFB, 0x01, 0x08, 0x00, 0x00, 0x00,
  0x0E, 0xFF, 0xDA, 0xF3, 0x01, 0xFD, 0x00, 0x0D, 0x00, 0xFC,
  0x02, 0x04, 0x05, 0x3A, 0x03, 0x03, 0x07, 0x00, 0x02, 0xFD,
  0x00, 0x00, 0x00, 0x00, 0x05, 0x03, 0x0A, 0x01, 0x06, 0x00,
  0xDF, 0x00, 0x3B, 0xFF, 0xCA, 0xEB, 0x00, 0x04, 0x00, 0x09,
  0x00, 0x00, 0x04, 0x08, 0x0A, 0x04, 0x02, 0x02, 0xFF, 0x1C,
  0x00, 0x02, 0xE6, 0x00, 0x07, 0x00, 0x07, 0x04, 0x03, 0x00,
  0x05, 0x00, 0x00, 0x00, 0x0A, 0xFF, 0xC7, 0x07, 0xFE, 0xFB,
  0x00, 0x01, 0x00, 0x05, 0x03, 0x07, 0x09, 0xFE, 0x0C, 0x01,
  0xFE, 0x00, 0x00, 0x01, 0x00, 0x02, 0x08, 0x00, 0x09, 0x05,
  0x03, 0x01, 0x07, 0x00, 0x00, 0x00, 0x0E, 0x00, 0xE4, 0xFF,
  0x06, 0xFB, 0x00, 0x08, 0x00, 0xFE, 0x06, 0x06, 0x02, 0x09,
  0xFF, 0x04, 0x04, 0x00, 0x22, 0x06, 0x00, 0x00, 0x04, 0x00,
  0x0B, 0x36, 0x0A, 0x00, 0x04, 0x00, 0x00, 0x00, 0x0A, 0x03,
  0xD1, 0xF3, 0x04, 0x02, 0x00, 0xFC, 0x00, 0x00, 0x00, 0x06,
  0x31, 0x07, 0x07, 0x04, 0x04, 0x00, 0x00, 0x05, 0x00, 0x00,
  0x02, 0x00, 0xFF, 0x02, 0x05, 0x01, 0x00, 0x00, 0x00, 0x00,
  0x06, 0x00, 0xC9, 0xEF, 0xFF, 0x03, 0x00, 0x0D, 0x00, 0x01,
  0x00, 0x06, 0x07, 0x02, 0x0B, 0xFB, 0x05, 0x00, 0x1B, 0x01,
  0x00, 0x00, 0x02, 0x00, 0x09, 0x04, 0x04, 0x01, 0x0D, 0x00,
  0x00, 0x00, 0x09, 0x00, 0xCE, 0xE1, 0xFA, 0xFD, 0x00, 0x07,
  0x00, 0xFC, 0xFB, 0x39, 0x3B, 0x32, 0x00, 0xF8, 0x00, 0x00,
  0x00, 0x01, 0x00, 0x00, 0x03, 0x00, 0x02, 0x08, 0x06, 0xFE,
  0x00, 0x1F, 0x00, 0x00, 0x09, 0x00, 0xC0, 0xFF, 0xF8, 0x3C,
  0x00, 0x05, 0x00, 0x02, 0xFD, 0x37, 0x33, 0x2D, 0x0B, 0xFF,
  0xFB, 0x00, 0x00, 0x00, 0x00, 0x01, 0x06, 0x00, 0x09, 0x0A,
  0x03, 0x00, 0x07, 0x20, 0x00, 0x00, 0x08, 0xFF, 0xBF, 0xDE,
  0x02, 0x02, 0x00, 0x04, 0x00, 0x02, 0xFE, 0x0A, 0x02, 0x44,
  0x04, 0xFF, 0xFD, 0x00, 0x00, 0x04, 0x00, 0x00, 0x00, 0x00,
  0x06, 0x06, 0xFF, 0xFF, 0x08, 0x00, 0xE2, 0x00, 0x08, 0x00,
  0x01, 0xE4, 0x00, 0x00, 0x00, 0x00, 0x00, 0x04, 0x00, 0x36,
  0x36, 0x32, 0x04, 0xFE, 0xFE, 0x00, 0x00, 0x00, 0x00, 0x00,
  0xFF, 0x00, 0x09, 0xFF, 0xFD, 0x01, 0x09, 0x00, 0xE5, 0x00,
  0x08, 0xFF, 0xCC, 0xE5, 0x01, 0xFD, 0x00, 0x0C, 0x00, 0xFF,
  0x00, 0xFD, 0x2D, 0x40, 0x06, 0x20, 0xFB, 0x00, 0x2D, 0xFC,
  0xE3, 0x00, 0xFF, 0x00, 0x02, 0xFF, 0x04, 0x01, 0x09, 0x00,
  0xE3, 0x00, 0x0C, 0xFF, 0xD3, 0xE4, 0x02, 0x00, 0x00, 0x0D,
  0x00, 0x02, 0x18, 0x09, 0x38, 0x06, 0x03, 0xFE, 0x02, 0x00,
  0x00, 0x03, 0x00, 0xFF, 0x07, 0x00, 0x07, 0x04, 0xFC, 0x00,
  0x03, 0x00, 0x00, 0x00, 0x04, 0x00, 0xDE, 0xF2, 0x09, 0x02,
  0x00, 0x07, 0x00, 0x00, 0x00, 0x3D, 0x04, 0x30, 0x05, 0x00,
  0x03, 0x00, 0x00, 0xFF, 0x00, 0x00, 0x05, 0x00, 0x01, 0x04,
  0xFB, 0x01, 0x03, 0x00, 0x00, 0x00, 0x10, 0x00, 0xE1, 0xF0,
  0x2A, 0x25, 0x00, 0x04, 0x00, 0x00, 0xFD, 0x08, 0x01, 0x27,
  0x08, 0xF8, 0x00, 0x00, 0x00, 0x05, 0x00, 0x00, 0x03, 0x00,
  0x09, 0x05, 0x01, 0x01, 0x08, 0x00, 0x00, 0x00, 0x08, 0x00,
  0xB2, 0xFB, 0xFE, 0xFA, 0x00, 0xFD, 0xE6, 0x00, 0xFF, 0x2F,
  0xFF, 0x04, 0x06, 0x00, 0x00, 0x00, 0x00, 0x03, 0x00, 0x00,
  0x0A, 0x00, 0x04, 0x05, 0xFD, 0x01, 0x05, 0x00, 0x00, 0x00,
  0x0C, 0x00, 0xD8, 0xFF, 0xFC, 0x28, 0x00, 0x09, 0x00, 0x02,
  0x01, 0x04, 0x08, 0x34, 0x0E, 0x00, 0x01, 0x00, 0x00, 0xFF,
  0xCD, 0x00, 0x02, 0x00, 0x04, 0x45, 0x01, 0x00, 0x07, 0x00,
  0x00, 0x00, 0x09, 0x00, 0xCC, 0x04, 0x04, 0x05, 0x00, 0x07,
  0x00, 0xFF, 0x01, 0x43, 0x08, 0x05, 0x04, 0x00, 0x00, 0x00,
  0x1A, 0x03, 0x00, 0x00, 0x08, 0x00, 0x01, 0x3C, 0xFD, 0x00,
  0x07, 0x00, 0x00, 0x00, 0x09, 0x00, 0xC2, 0xE5, 0xFF, 0x38,
  0x00, 0x08, 0x00, 0x02, 0xFC, 0x32, 0x0C, 0x3E, 0x00, 0x00,
  0x04, 0x00, 0x00, 0xFC, 0x00, 0x00, 0x05, 0x00, 0x02, 0x06,
  0xFC, 0x01, 0x06, 0x1B, 0x00, 0x00, 0x0C, 0xFF, 0xBE, 0xDB,
  0x31, 0x00, 0x00, 0x09, 0x00, 0xFC, 0x04, 0x0A, 0xFF, 0x09,
  0x05, 0xFF, 0x02, 0x00, 0x00, 0xFE, 0x00, 0x01, 0x03, 0x00,
  0x06, 0x0A, 0x04, 0x00, 0x0B, 0x00, 0x00, 0x00, 0x0D, 0x00,
  0xD3, 0x01, 0xFF, 0xFE, 0x00, 0x07, 0x00, 0x03, 0x04, 0x06,
  0x32, 0x05, 0x07, 0x02, 0x1B, 0x00, 0x00, 0x03, 0xD7, 0x01,
  0x07, 0x00, 0x04, 0x03, 0x01, 0x01, 0x00, 0x00, 0x00, 0x00,
  0x08, 0x01, 0xD7, 0x05, 0x05, 0x03, 0x00, 0x0C, 0x00, 0x02,
  0x00, 0x08, 0x2B, 0x34, 0x09, 0xFE, 0xFB, 0x00, 0x20, 0x04,
  0xE6, 0x01, 0x01, 0x00, 0x08, 0x05, 0x08, 0x00, 0x0E, 0x00,
  0x00, 0x00, 0x45, 0x00, 0xCD, 0x04, 0x04, 0x04, 0x00, 0x05,
  0x00, 0xFD, 0xFD, 0x09, 0x02, 0x09, 0x03, 0xFE, 0xFB, 0x00,
  0x01, 0x05, 0x00, 0x01, 0x07, 0x00, 0x0D, 0x10, 0x09, 0x00,
  0x0A, 0x00, 0xE5, 0x00, 0x0E, 0x00, 0xD7, 0x01, 0x04, 0x01,
  0x00, 0xFF, 0x00, 0x06, 0x01, 0x06, 0x06, 0x34, 0x0D, 0x00,
  0x06, 0x00, 0x00, 0x02, 0x00, 0x00, 0x02, 0x00, 0x09, 0x02,
  0x02, 0x00, 0x05, 0x00, 0x00, 0x00, 0x11, 0x00, 0xC5, 0x02,
  0x00, 0x02, 0x00, 0x06, 0x00, 0x00, 0x00, 0x07, 0x08, 0x37,
  0x06, 0xFD, 0x02, 0x00, 0x2B, 0x00, 0x00, 0x00, 0x03, 0x00,
  0x08, 0x05, 0x06, 0x00, 0x09, 0x00, 0x00, 0x00, 0x33, 0xFF,
  0xDD, 0x02, 0xF9, 0xF9, 0x00, 0x01, 0x00, 0xFE, 0x03, 0x01,
  0x0B, 0x42, 0x05, 0xFE, 0xFE, 0x00, 0x2F, 0xFB, 0x00, 0x00,
  0x04, 0x00, 0xFA, 0x01, 0xFF, 0x02, 0x00, 0x00, 0x00, 0x00,
  0x0B, 0xFF, 0xD7, 0xDB, 0xFE, 0x01, 0x00, 0x08, 0x00, 0x33,
  0xFF, 0x00, 0x0D, 0x37, 0x07, 0x00, 0x00, 0x00, 0x21, 0x00,
  0xDA, 0x02, 0x01, 0x00, 0x08, 0x02, 0x02, 0x01, 0x10, 0x00,
  0xE3, 0x00, 0x09, 0x00, 0xD3, 0xFE, 0x00, 0x02, 0x00, 0x06,
  0x00, 0x00, 0xFB, 0x04, 0x2F, 0x07, 0x01, 0x00, 0x02, 0x00,
  0x00, 0x00, 0x00, 0x02, 0x08, 0x00, 0x04, 0x33, 0x00, 0xFE,
  0x04, 0x00, 0x00, 0x00, 0x03, 0x00, 0xC7, 0x05, 0x04, 0x06,
  0x00, 0x09, 0x00, 0x02, 0x05, 0x36, 0x05, 0x33, 0x01, 0x00,
  0x01, 0x1E, 0x00, 0xEF, 0x00, 0x00, 0x03, 0x00, 0x0B, 0x0A,
  0x00, 0x00, 0x0F, 0x1F, 0xE5, 0x00, 0x07, 0x00, 0xC8, 0x05,
  0x08, 0xFF, 0x00, 0x06, 0xDC, 0xFC, 0x01, 0x2C, 0x03, 0x39,
  0x01, 0x03, 0x03, 0x00, 0xFF, 0x00, 0x00, 0xFF, 0x01, 0x00,
  0xFF, 0x2C, 0x03, 0x01, 0x08, 0x00, 0x00, 0x00, 0x0B, 0x00,
  0xD4, 0x03, 0x06, 0xFE, 0x00, 0x08, 0xE5, 0x00, 0x02, 0x04,
  0x0A, 0x34, 0x08, 0x03, 0xFF, 0x00, 0x00, 0xEB, 0x00, 0x01,
  0x01, 0x00, 0x0E, 0x04, 0xFD, 0x00, 0x0D, 0x00, 0x00, 0x00,
  0x0B, 0xFE, 0xD2, 0xE6, 0x06, 0xFD, 0x00, 0x09, 0x00, 0x01,
  0xFD, 0x01, 0x35, 0x08, 0x09, 0x00, 0x00, 0x00, 0x40, 0xFE,
  0xDF, 0x02, 0xFC, 0x00, 0x03, 0x2A, 0x08, 0x01, 0x08, 0x00,
  0x00, 0x00, 0x42, 0x00, 0xCB, 0xEA, 0x06, 0x32, 0x00, 0x03,
  0x00, 0x00, 0x01, 0x06, 0x0C, 0x36, 0x0D, 0xFE, 0xFB, 0x00,
  0x00, 0xFD, 0x00, 0x01, 0x05, 0x00, 0x0D, 0x04, 0xFE, 0x01,
  0x07, 0x00, 0xD9, 0x00, 0x3F, 0x00, 0xD5, 0x05, 0xFF, 0x02,
  0x00, 0x03, 0xE2, 0x00, 0x01, 0x08, 0x0E, 0x0B, 0x08, 0xFE,
  0x02, 0x00, 0x00, 0xFD, 0x00, 0x00, 0x03, 0x00, 0x05, 0x09,
  0x03, 0x01, 0x01, 0x00, 0x00, 0x00, 0x07, 0x00, 0xCE, 0x02,
  0x27, 0xFF, 0x00, 0x05, 0xDD, 0xFC, 0xFF, 0x31, 0x36, 0x3B,
  0x04, 0xFF, 0x07, 0x00, 0x23, 0x01, 0xD4, 0x00, 0x04, 0x00,
  0x06, 0x3F, 0x06, 0x01, 0x06, 0x00, 0xE5, 0x00, 0x07, 0x00,
  0xCD, 0x0A, 0x02, 0x06, 0x00, 0x1D, 0x00, 0xFC, 0xFB, 0xFF,
  0xF9, 0x01, 0xFC, 0xFB, 0x03, 0x00, 0xDA, 0x05, 0x00, 0x00,
  0xFD, 0x00, 0x1F, 0x28, 0xFB, 0xD6, 0xFD, 0x1A, 0x00, 0xCA,
  0xFC, 0x01, 0x04, 0xFE, 0x03, 0x34, 0x00, 0x02, 0x00, 0x00,
  0xFB, 0x00, 0xFC, 0x04, 0x25, 0xFD, 0x09, 0x00, 0x00, 0x03,
  0x00, 0x00, 0xFE, 0x00, 0xFF, 0xFF, 0x03, 0xFF, 0x03, 0x00,
  0x00, 0xE5, 0xF5, 0x00, 0xFE, 0xFF, 0x01, 0x27, 0x00, 0xFB,
  0x00, 0xFE, 0xFD, 0x01, 0xFD, 0x01, 0x1A, 0xFF, 0x04, 0x00,
  0x00, 0xFF, 0x29, 0xFE, 0xFE, 0x00, 0x01, 0xFF, 0x03, 0xDD,
  0x02, 0x00, 0x00, 0x00, 0x1D, 0x00, 0xFE, 0x01, 0x28, 0x3C,
  0x00, 0x1E, 0x00, 0x00, 0xFF, 0x00, 0xFF, 0x06, 0x07, 0xFE,
  0x06, 0x00, 0x00, 0xFB, 0x3B, 0x00, 0xFF, 0x00, 0x01, 0x22,
  0x02, 0xE4, 0xF7, 0x1C, 0x00, 0xE4, 0xFC, 0x1A, 0xFC, 0x01,
  0x02, 0x25, 0x00, 0x24, 0x00, 0x00, 0xFF, 0x25, 0xFF, 0x04,
  0x16, 0xFD, 0x02, 0x00, 0x00, 0x03, 0x00, 0x01, 0xFD, 0x00,
  0x25, 0x17, 0xFD, 0xE3, 0x03, 0x00, 0xFF, 0xE3, 0x13, 0x00,
  0x02, 0x01, 0x04, 0x31, 0x00, 0xFF, 0x00, 0x04, 0x00, 0xFC,
  0xFC, 0x04, 0x2B, 0xFB, 0xFF, 0x00, 0x00, 0x05, 0x00, 0x00,
  0x00, 0x00, 0xFE, 0x1C, 0x00, 0xDB, 0x02, 0x00, 0x00, 0x00,
  0x25, 0x1B, 0x02, 0x04, 0x02, 0x09, 0x00, 0x12, 0x00, 0xFF,
  0xDF, 0x16, 0xFE, 0x02, 0xFA, 0xFD, 0x00, 0x00, 0xE2, 0x08,
  0x3D, 0x00, 0xFD, 0x00, 0x02, 0xF9, 0x05, 0xD1, 0x00, 0x00,
  0x00, 0x00, 0xFE, 0x00, 0x03, 0x01, 0xFA, 0x03, 0x00, 0x1B,
  0x00, 0xFE, 0xFC, 0x00, 0xFB, 0x03, 0x03, 0xFC, 0xFF, 0x00,
  0xD8, 0x07, 0x00, 0x00, 0xFD, 0x00, 0x04, 0x02, 0x00, 0xFF,
  0x06, 0x00, 0x00, 0x00, 0x01, 0x1A, 0xFE, 0xFD, 0x01, 0x04,
  0x00, 0x02, 0x00, 0x00, 0xF8, 0x19, 0xFC, 0x03, 0x1F, 0xF7,
  0x04, 0x00, 0xE2, 0x00, 0x1E, 0x00, 0xFB, 0x00, 0x00, 0xFB,
  0x00, 0x01, 0x06, 0x1E, 0x00, 0x00, 0xFE, 0x01, 0x00, 0x03,
  0x26, 0xFD, 0x00, 0x1F, 0x00, 0x01, 0xFE, 0xFE, 0xFD, 0x05,
  0x28, 0xF9, 0x03, 0x00, 0x00, 0x21, 0x3C, 0xFF, 0xFD, 0x00,
  0x01, 0xFE, 0xFC, 0xD7, 0x05, 0x24, 0x00, 0xD3, 0x26, 0x00,
  0x00, 0x00, 0x00, 0x25, 0x00, 0x1B, 0x00, 0xFE, 0xF7, 0xFF,
  0xFD, 0xFF, 0xFF, 0xFB, 0x03, 0x00, 0x00, 0xFE, 0x39, 0xFF,
  0xFE, 0x00, 0x1D, 0xFE, 0xFE, 0xD2, 0x01, 0x3E, 0x00, 0xE5,
  0xFA, 0x22, 0x00, 0x00, 0x1C, 0x1A, 0x00, 0xFF, 0x00, 0xFD,
  0xFB, 0xFE, 0xFE, 0x00, 0xFC, 0xF9, 0x05, 0x00, 0x00, 0x02,
  0x46, 0x00, 0xFF, 0x00, 0xFF, 0x02, 0x03, 0x00, 0xFD, 0x00,
  0x00, 0xE5, 0x21, 0x23, 0xFF, 0x03, 0x03, 0x2A, 0x00, 0xFD,
  0x00, 0xFF, 0xFE, 0xFF, 0xFC, 0x01, 0xFA, 0xFE, 0x02, 0x00,
  0x00, 0x02, 0x32, 0x00, 0xFE, 0x00, 0x1D, 0x00, 0xFB, 0x00,
  0xFB, 0x00, 0x00, 0xDC, 0xFE, 0x00, 0x02, 0x01, 0x00, 0x3A,
  0x00, 0xFB, 0x00, 0x1E, 0xFD, 0xFF, 0xFF, 0x02, 0xFE, 0xFB,
  0xFE, 0x00, 0x00, 0xFD, 0x30, 0x00, 0xFF, 0x00, 0xFF, 0x01,
  0xFB, 0xD5, 0x00, 0x00, 0x00, 0xDE, 0xFE, 0x22, 0xFE, 0xFE,
  0xFF, 0xFE, 0x00, 0x19, 0x00, 0xFD, 0xFC, 0x26, 0xF9, 0xFF,
  0xFD, 0xFE, 0x00, 0x00, 0xE7, 0x07, 0x25, 0x00, 0x00, 0x00,
  0x01, 0x02, 0xF9, 0xE1, 0xE3, 0x00, 0x00, 0x00, 0x01, 0x1E,
  0x03, 0xFF, 0x01, 0x3B, 0x00, 0x10, 0x00, 0x00, 0xFB, 0x1C,
  0xF9, 0x05, 0x1C, 0xF8, 0x00, 0x00, 0x00, 0x05, 0x23, 0x01,
  0xFE, 0x00, 0xFA, 0x35, 0xFA, 0x00, 0xFE, 0x00, 0x00, 0x00,
  0x26, 0x00, 0x1A, 0xFE, 0x00, 0x09, 0x00, 0x1E, 0x00, 0xF8,
  0xFF, 0x15, 0xFE, 0x06, 0x01, 0xFB, 0x04, 0x00, 0x00, 0x04,
